
#ifndef DHT_ANOMALY_MODEL_H
#define DHT_ANOMALY_MODEL_H

const unsigned char dht_anomaly_model2_tflite[] = {
  0x1c, 0x0, 0x0, 0x0, 0x54, 0x46, 0x4c, 0x33, 0x14, 0x0, 0x20, 0x0, 0x1c, 0x0, 0x18, 0x0, 0x14, 0x0, 0x10, 0x0, 0xc, 0x0, 0x0, 0x0, 0x8, 0x0, 0x4, 0x0, 0x14, 0x0, 0x0, 0x0, 0x1c, 0x0, 0x0, 0x0, 0x8c, 0x0, 0x0, 0x0, 0xe4, 0x0, 0x0, 0x0, 0x10, 0x3, 0x0, 0x0, 0x20, 0x3, 0x0, 0x0, 0xb4, 0x8, 0x0, 0x0, 0x3, 0x0, 0x0, 0x0, 0x1, 0x0, 0x0, 0x0, 0x4, 0x0, 0x0, 0x0, 0xa2, 0xfc, 0xff, 0xff, 0xc, 0x0, 0x0, 0x0, 0x1c, 0x0, 0x0, 0x0, 0x3c, 0x0, 0x0, 0x0, 0xf, 0x0, 0x0, 0x0, 0x73, 0x65, 0x72, 0x76, 0x69, 0x6e, 0x67, 0x5f, 0x64, 0x65, 0x66, 0x61, 0x75, 0x6c, 0x74, 0x0, 0x1, 0x0, 0x0, 0x0, 0x4, 0x0, 0x0, 0x0, 0x90, 0xff, 0xff, 0xff, 0xa, 0x0, 0x0, 0x0, 0x4, 0x0, 0x0, 0x0, 0x8, 0x0, 0x0, 0x0, 0x6f, 0x75, 0x74, 0x70, 0x75, 0x74, 0x5f, 0x30, 0x0, 0x0, 0x0, 0x0, 0x1, 0x0, 0x0, 0x0, 0x4, 0x0, 0x0, 0x0, 0x82, 0xfd, 0xff, 0xff, 0x4, 0x0, 0x0, 0x0, 0xc, 0x0, 0x0, 0x0, 0x6b, 0x65, 0x72, 0x61, 0x73, 0x5f, 0x74, 0x65, 0x6e, 0x73, 0x6f, 0x72, 0x0, 0x0, 0x0, 0x0, 0x2, 0x0, 0x0, 0x0, 0x34, 0x0, 0x0, 0x0, 0x4, 0x0, 0x0, 0x0, 0xdc, 0xff, 0xff, 0xff, 0xd, 0x0, 0x0, 0x0, 0x4, 0x0, 0x0, 0x0, 0x13, 0x0, 0x0, 0x0, 0x43, 0x4f, 0x4e, 0x56, 0x45, 0x52, 0x53, 0x49, 0x4f, 0x4e, 0x5f, 0x4d, 0x45, 0x54, 0x41, 0x44, 0x41, 0x54, 0x41, 0x0, 0x8, 0x0, 0xc, 0x0, 0x8, 0x0, 0x4, 0x0, 0x8, 0x0, 0x0, 0x0, 0xc, 0x0, 0x0, 0x0, 0x4, 0x0, 0x0, 0x0, 0x13, 0x0, 0x0, 0x0, 0x6d, 0x69, 0x6e, 0x5f, 0x72, 0x75, 0x6e, 0x74, 0x69, 0x6d, 0x65, 0x5f, 0x76, 0x65, 0x72, 0x73, 0x69, 0x6f, 0x6e, 0x0, 0xe, 0x0, 0x0, 0x0, 0x28, 0x2, 0x0, 0x0, 0x20, 0x2, 0x0, 0x0, 0x0, 0x2, 0x0, 0x0, 0x68, 0x1, 0x0, 0x0, 0x54, 0x1, 0x0, 0x0, 0x34, 0x1, 0x0, 0x0, 0x4, 0x1, 0x0, 0x0, 0xb4, 0x0, 0x0, 0x0, 0xac, 0x0, 0x0, 0x0, 0xa4, 0x0, 0x0, 0x0, 0x9c, 0x0, 0x0, 0x0, 0x94, 0x0, 0x0, 0x0, 0x74, 0x0, 0x0, 0x0, 0x4, 0x0, 0x0, 0x0, 0x36, 0xfe, 0xff, 0xff, 0x4, 0x0, 0x0, 0x0, 0x60, 0x0, 0x0, 0x0, 0xc, 0x0, 0x0, 0x0, 0x8, 0x0, 0xe, 0x0, 0x8, 0x0, 0x4, 0x0, 0x8, 0x0, 0x0, 0x0, 0x10, 0x0, 0x0, 0x0, 0x28, 0x0, 0x0, 0x0, 0x0, 0x0, 0x6, 0x0, 0x8, 0x0, 0x4, 0x0, 0x6, 0x0, 0x0, 0x0, 0x4, 0x0, 0x0, 0x0, 0x1, 0x0, 0x0, 0x0, 0xea, 0x3, 0x0, 0x0, 0xc, 0x0, 0x18, 0x0, 0x14, 0x0, 0x10, 0x0, 0xc, 0x0, 0x4, 0x0, 0xc, 0x0, 0x0, 0x0, 0xb9, 0xee, 0xb6, 0xe2, 0xe6, 0x2a, 0x4d, 0x45, 0x2, 0x0, 0x0, 0x0, 0x2, 0x0, 0x0, 0x0, 0x4, 0x0, 0x0, 0x0, 0x6, 0x0, 0x0, 0x0, 0x32, 0x2e, 0x31, 0x39, 0x2e, 0x30, 0x0, 0x0, 0xa2, 0xfe, 0xff, 0xff, 0x4, 0x0, 0x0, 0x0, 0x10, 0x0, 0x0, 0x0, 0x31, 0x2e, 0x31, 0x34, 0x2e, 0x30, 0x0, 0x0, 0x0, 0x0, 0x0, 0x0, 0x0, 0x0, 0x0, 0x0, 0x20, 0xf9, 0xff, 0xff, 0x24, 0xf9, 0xff, 0xff, 0x28, 0xf9, 0xff, 0xff, 0x2c, 0xf9, 0xff, 0xff, 0xce, 0xfe, 0xff, 0xff, 0x4, 0x0, 0x0, 0x0, 0x40, 0x0, 0x0, 0x0, 0x3c, 0x1a, 0xd9, 0x3e, 0x84, 0xe4, 0x62, 0x3e, 0xfe, 0xd7, 0x97, 0x3d, 0xb8, 0x5a, 0x51, 0x3f, 0x39, 0xbf, 0x12, 0x3f, 0x12, 0xe8, 0xa5, 0x3e, 0xff, 0xa2, 0x99, 0xbe, 0xc4, 0x2, 0x43, 0x3f, 0x4d, 0x40, 0x1, 0xbf, 0x68, 0x40, 0x28, 0x3f, 0x30, 0x9f, 0x79, 0x3b, 0xd3, 0x50, 0x9c, 0x3e, 0x5b, 0xa5, 0xcf, 0xbe, 0x7, 0x7, 0x3b, 0x3e, 0x1c, 0x9c, 0x1a, 0x3f, 0x4b, 0x96, 0xfc, 0xbe, 0x1a, 0xff, 0xff, 0xff, 0x4, 0x0, 0x0, 0x0, 0x20, 0x0, 0x0, 0x0, 0xf5, 0xdf, 0xba, 0xbd, 0xc5, 0x94, 0x6, 0x3e, 0xba, 0xc8, 0xe7, 0xbd, 0xb, 0x93, 0xcc, 0x3d, 0x55, 0x25, 0x2f, 0x3e, 0x39, 0x45, 0x1f, 0x3e, 0xa0, 0x96, 0x26, 0x3d, 0x27, 0xac, 0xda, 0x3c, 0x46, 0xff, 0xff, 0xff, 0x4, 0x0, 0x0, 0x0, 0x10, 0x0, 0x0, 0x0, 0x9, 0x9c, 0xdb, 0xbd, 0x54, 0x84, 0x15, 0xbe, 0x0, 0x0, 0x0, 0x0, 0x3c, 0x7c, 0xd6, 0x3e, 0x62, 0xff, 0xff, 0xff, 0x4, 0x0, 0x0, 0x0, 0x4, 0x0, 0x0, 0x0, 0xdc, 0x15, 0x50, 0xbe, 0x72, 0xff, 0xff, 0xff, 0x4, 0x0, 0x0, 0x0, 0x80, 0x0, 0x0, 0x0, 0x49, 0x56, 0xf, 0x3e, 0x3a, 0x62, 0xf7, 0xbe, 0x4f, 0x56, 0xd5, 0x3e, 0x3a, 0x80, 0xaf, 0x3e, 0x87, 0x55, 0xbc, 0xbe, 0xa7, 0x29, 0x5b, 0xbe, 0x38, 0xaf, 0x11, 0xbf, 0x45, 0xac, 0x5, 0x40, 0x89, 0xe1, 0x4, 0x3f, 0x18, 0x3c, 0x1a, 0xba, 0x58, 0x45, 0xd, 0x3f, 0xa6, 0x52, 0xf5, 0xbe, 0x65, 0x4a, 0xc, 0xbf, 0xf9, 0xa4, 0x44, 0xbf, 0x38, 0x27, 0x68, 0x3e, 0xe5, 0x2e, 0xb9, 0x3f, 0x35, 0xae, 0xb6, 0xbe, 0x3, 0xb6, 0x83, 0xbe, 0x80, 0x63, 0xc8, 0xbc, 0x95, 0xba, 0x16, 0x3f, 0xfd, 0xf4, 0x9, 0xbf, 0xaa, 0x13, 0xaa, 0x3e, 0x66, 0x9f, 0xe2, 0x3e, 0x70, 0x96, 0xf4, 0xbe, 0x81, 0x8e, 0x5e, 0x3f, 0xa4, 0x36, 0xae, 0x3e, 0x5e, 0xf1, 0xb6, 0x3e, 0x45, 0xd8, 0x5e, 0x3f, 0x7d, 0x20, 0x69, 0x3f, 0x28, 0x45, 0xa7, 0x3e, 0x5b, 0xe7, 0xdc, 0xbe, 0x26, 0x98, 0x1f, 0xc0, 0x0, 0x0, 0x6, 0x0, 0x8, 0x0, 0x4, 0x0, 0x6, 0x0, 0x0, 0x0, 0x4, 0x0, 0x0, 0x0, 0x10, 0x0, 0x0, 0x0, 0xb2, 0x6, 0xf, 0x3f, 0xac, 0xa5, 0xa1, 0x3e, 0xc0, 0x37, 0x6b, 0x3f, 0x7f, 0x64, 0x61, 0xbe, 0x84, 0xfa, 0xff, 0xff, 0x88, 0xfa, 0xff, 0xff, 0xf, 0x0, 0x0, 0x0, 0x4d, 0x4c, 0x49, 0x52, 0x20, 0x43, 0x6f, 0x6e, 0x76, 0x65, 0x72, 0x74, 0x65, 0x64, 0x2e, 0x0, 0x1, 0x0, 0x0, 0x0, 0x14, 0x0, 0x0, 0x0, 0x0, 0x0, 0xe, 0x0, 0x18, 0x0, 0x14, 0x0, 0x10, 0x0, 0xc, 0x0, 0x8, 0x0, 0x4, 0x0, 0xe, 0x0, 0x0, 0x0, 0x14, 0x0, 0x0, 0x0, 0x1c, 0x0, 0x0, 0x0, 0x8, 0x1, 0x0, 0x0, 0xc, 0x1, 0x0, 0x0, 0x10, 0x1, 0x0, 0x0, 0x4, 0x0, 0x0, 0x0, 0x6d, 0x61, 0x69, 0x6e, 0x0, 0x0, 0x0, 0x0, 0x4, 0x0, 0x0, 0x0, 0xb0, 0x0, 0x0, 0x0, 0x68, 0x0, 0x0, 0x0, 0x34, 0x0, 0x0, 0x0, 0x10, 0x0, 0x0, 0x0, 0x0, 0x0, 0xa, 0x0, 0x10, 0x0, 0xc, 0x0, 0x8, 0x0, 0x4, 0x0, 0xa, 0x0, 0x0, 0x0, 0xc, 0x0, 0x0, 0x0, 0x10, 0x0, 0x0, 0x0, 0x1, 0x0, 0x0, 0x0, 0x1, 0x0, 0x0, 0x0, 0xa, 0x0, 0x0, 0x0, 0x1, 0x0, 0x0, 0x0, 0x9, 0x0, 0x0, 0x0, 0x9a, 0xff, 0xff, 0xff, 0x10, 0x0, 0x0, 0x0, 0x0, 0x0, 0x0, 0x8, 0xc, 0x0, 0x0, 0x0, 0x10, 0x0, 0x0, 0x0, 0x30, 0xfb, 0xff, 0xff, 0x1, 0x0, 0x0, 0x0, 0x9, 0x0, 0x0, 0x0, 0x3, 0x0, 0x0, 0x0, 0x8, 0x0, 0x0, 0x0, 0x1, 0x0, 0x0, 0x0, 0x3, 0x0, 0x0, 0x0, 0xca, 0xff, 0xff, 0xff, 0x10, 0x0, 0x0, 0x0, 0x0, 0x0, 0x0, 0x8, 0x10, 0x0, 0x0, 0x0, 0x14, 0x0, 0x0, 0x0, 0xba, 0xff, 0xff, 0xff, 0x0, 0x0, 0x0, 0x1, 0x1, 0x0, 0x0, 0x0, 0x8, 0x0, 0x0, 0x0, 0x3, 0x0, 0x0, 0x0, 0x7, 0x0, 0x0, 0x0, 0x2, 0x0, 0x0, 0x0, 0x4, 0x0, 0x0, 0x0, 0x0, 0x0, 0xe, 0x0, 0x16, 0x0, 0x0, 0x0, 0x10, 0x0, 0xc, 0x0, 0xb, 0x0, 0x4, 0x0, 0xe, 0x0, 0x0, 0x0, 0x18, 0x0, 0x0, 0x0, 0x0, 0x0, 0x0, 0x8, 0x18, 0x0, 0x0, 0x0, 0x1c, 0x0, 0x0, 0x0, 0x0, 0x0, 0x6, 0x0, 0x8, 0x0, 0x7, 0x0, 0x6, 0x0, 0x0, 0x0, 0x0, 0x0, 0x0, 0x1, 0x1, 0x0, 0x0, 0x0, 0x7, 0x0, 0x0, 0x0, 0x3, 0x0, 0x0, 0x0, 0x0, 0x0, 0x0, 0x0, 0x6, 0x0, 0x0, 0x0, 0x5, 0x0, 0x0, 0x0, 0x1, 0x0, 0x0, 0x0, 0xa, 0x0, 0x0, 0x0, 0x1, 0x0, 0x0, 0x0, 0x0, 0x0, 0x0, 0x0, 0xb, 0x0, 0x0, 0x0, 0xf8, 0x3, 0x0, 0x0, 0xa0, 0x3, 0x0, 0x0, 0x48, 0x3, 0x0, 0x0, 0xc, 0x3, 0x0, 0x0, 0xb0, 0x2, 0x0, 0x0, 0x58, 0x2, 0x0, 0x0, 0xc, 0x2, 0x0, 0x0, 0x78, 0x1, 0x0, 0x0, 0xdc, 0x0, 0x0, 0x0, 0x60, 0x0, 0x0, 0x0, 0x4, 0x0, 0x0, 0x0, 0x4a, 0xfc, 0xff, 0xff, 0x0, 0x0, 0x0, 0x1, 0x14, 0x0, 0x0, 0x0, 0x1c, 0x0, 0x0, 0x0, 0x1c, 0x0, 0x0, 0x0, 0xb, 0x0, 0x0, 0x0, 0x34, 0x0, 0x0, 0x0, 0x2, 0x0, 0x0, 0x0, 0xff, 0xff, 0xff, 0xff, 0x1, 0x0, 0x0, 0x0, 0x34, 0xfc, 0xff, 0xff, 0x1b, 0x0, 0x0, 0x0, 0x53, 0x74, 0x61, 0x74, 0x65, 0x66, 0x75, 0x6c, 0x50, 0x61, 0x72, 0x74, 0x69, 0x74, 0x69, 0x6f, 0x6e, 0x65, 0x64, 0x43, 0x61, 0x6c, 0x6c, 0x5f, 0x31, 0x3a, 0x30, 0x0, 0x2, 0x0, 0x0, 0x0, 0x1, 0x0, 0x0, 0x0, 0x1, 0x0, 0x0, 0x0, 0xa2, 0xfc, 0xff, 0xff, 0x0, 0x0, 0x0, 0x1, 0x14, 0x0, 0x0, 0x0, 0x1c, 0x0, 0x0, 0x0, 0x1c, 0x0, 0x0, 0x0, 0xa, 0x0, 0x0, 0x0, 0x54, 0x0, 0x0, 0x0, 0x2, 0x0, 0x0, 0x0, 0xff, 0xff, 0xff, 0xff, 0x1, 0x0, 0x0, 0x0, 0x8c, 0xfc, 0xff, 0xff, 0x38, 0x0, 0x0, 0x0, 0x73, 0x65, 0x71, 0x75, 0x65, 0x6e, 0x74, 0x69, 0x61, 0x6c, 0x5f, 0x31, 0x2f, 0x64, 0x65, 0x6e, 0x73, 0x65, 0x5f, 0x32, 0x5f, 0x31, 0x2f, 0x4d, 0x61, 0x74, 0x4d, 0x75, 0x6c, 0x3b, 0x73, 0x65, 0x71, 0x75, 0x65, 0x6e, 0x74, 0x69, 0x61, 0x6c, 0x5f, 0x31, 0x2f, 0x64, 0x65, 0x6e, 0x73, 0x65, 0x5f, 0x32, 0x5f, 0x31, 0x2f, 0x41, 0x64, 0x64, 0x0, 0x0, 0x0, 0x0, 0x2, 0x0, 0x0, 0x0, 0x1, 0x0, 0x0, 0x0, 0x1, 0x0, 0x0, 0x0, 0x1a, 0xfd, 0xff, 0xff, 0x0, 0x0, 0x0, 0x1, 0x14, 0x0, 0x0, 0x0, 0x1c, 0x0, 0x0, 0x0, 0x1c, 0x0, 0x0, 0x0, 0x9, 0x0, 0x0, 0x0, 0x74, 0x0, 0x0, 0x0, 0x2, 0x0, 0x0, 0x0, 0xff, 0xff, 0xff, 0xff, 0x4, 0x0, 0x0, 0x0, 0x4, 0xfd, 0xff, 0xff, 0x58, 0x0, 0x0, 0x0, 0x73, 0x65, 0x71, 0x75, 0x65, 0x6e, 0x74, 0x69, 0x61, 0x6c, 0x5f, 0x31, 0x2f, 0x64, 0x65, 0x6e, 0x73, 0x65, 0x5f, 0x31, 0x5f, 0x32, 0x2f, 0x4d, 0x61, 0x74, 0x4d, 0x75, 0x6c, 0x3b, 0x73, 0x65, 0x71, 0x75, 0x65, 0x6e, 0x74, 0x69, 0x61, 0x6c, 0x5f, 0x31, 0x2f, 0x64, 0x65, 0x6e, 0x73, 0x65, 0x5f, 0x31, 0x5f, 0x32, 0x2f, 0x52, 0x65, 0x6c, 0x75, 0x3b, 0x73, 0x65, 0x71, 0x75, 0x65, 0x6e, 0x74, 0x69, 0x61, 0x6c, 0x5f, 0x31, 0x2f, 0x64, 0x65, 0x6e, 0x73, 0x65, 0x5f, 0x31, 0x5f, 0x32, 0x2f, 0x42, 0x69, 0x61, 0x73, 0x41, 0x64, 0x64, 0x0, 0x0, 0x0, 0x0, 0x2, 0x0, 0x0, 0x0, 0x1, 0x0, 0x0, 0x0, 0x4, 0x0, 0x0, 0x0, 0xb2, 0xfd, 0xff, 0xff, 0x0, 0x0, 0x0, 0x1, 0x14, 0x0, 0x0, 0x0, 0x1c, 0x0, 0x0, 0x0, 0x1c, 0x0, 0x0, 0x0, 0x8, 0x0, 0x0, 0x0, 0x6c, 0x0, 0x0, 0x0, 0x2, 0x0, 0x0, 0x0, 0xff, 0xff, 0xff, 0xff, 0x8, 0x0, 0x0, 0x0, 0x9c, 0xfd, 0xff, 0xff, 0x52, 0x0, 0x0, 0x0, 0x73, 0x65, 0x71, 0x75, 0x65, 0x6e, 0x74, 0x69, 0x61, 0x6c, 0x5f, 0x31, 0x2f, 0x64, 0x65, 0x6e, 0x73, 0x65, 0x5f, 0x31, 0x2f, 0x4d, 0x61, 0x74, 0x4d, 0x75, 0x6c, 0x3b, 0x73, 0x65, 0x71, 0x75, 0x65, 0x6e, 0x74, 0x69, 0x61, 0x6c, 0x5f, 0x31, 0x2f, 0x64, 0x65, 0x6e, 0x73, 0x65, 0x5f, 0x31, 0x2f, 0x52, 0x65, 0x6c, 0x75, 0x3b, 0x73, 0x65, 0x71, 0x75, 0x65, 0x6e, 0x74, 0x69, 0x61, 0x6c, 0x5f, 0x31, 0x2f, 0x64, 0x65, 0x6e, 0x73, 0x65, 0x5f, 0x31, 0x2f, 0x42, 0x69, 0x61, 0x73, 0x41, 0x64, 0x64, 0x0, 0x0, 0x2, 0x0, 0x0, 0x0, 0x1, 0x0, 0x0, 0x0, 0x8, 0x0, 0x0, 0x0, 0x96, 0xfe, 0xff, 0xff, 0x0, 0x0, 0x0, 0x1, 0x10, 0x0, 0x0, 0x0, 0x10, 0x0, 0x0, 0x0, 0x7, 0x0, 0x0, 0x0, 0x28, 0x0, 0x0, 0x0, 0x1c, 0xfe, 0xff, 0xff, 0x1b, 0x0, 0x0, 0x0, 0x73, 0x65, 0x71, 0x75, 0x65, 0x6e, 0x74, 0x69, 0x61, 0x6c, 0x5f, 0x31, 0x2f, 0x64, 0x65, 0x6e, 0x73, 0x65, 0x5f, 0x31, 0x2f, 0x4d, 0x61, 0x74, 0x4d, 0x75, 0x6c, 0x0, 0x2, 0x0, 0x0, 0x0, 0x8, 0x0, 0x0, 0x0, 0x2, 0x0, 0x0, 0x0, 0xde, 0xfe, 0xff, 0xff, 0x0, 0x0, 0x0, 0x1, 0x10, 0x0, 0x0, 0x0, 0x10, 0x0, 0x0, 0x0, 0x6, 0x0, 0x0, 0x0, 0x38, 0x0, 0x0, 0x0, 0x64, 0xfe, 0xff, 0xff, 0x2b, 0x0, 0x0, 0x0, 0x73, 0x65, 0x71, 0x75, 0x65, 0x6e, 0x74, 0x69, 0x61, 0x6c, 0x5f, 0x31, 0x2f, 0x64, 0x65, 0x6e, 0x73, 0x65, 0x5f, 0x31, 0x2f, 0x42, 0x69, 0x61, 0x73, 0x41, 0x64, 0x64, 0x2f, 0x52, 0x65, 0x61, 0x64, 0x56, 0x61, 0x72, 0x69, 0x61, 0x62, 0x6c, 0x65, 0x4f, 0x70, 0x0, 0x1, 0x0, 0x0, 0x0, 0x8, 0x0, 0x0, 0x0, 0x32, 0xff, 0xff, 0xff, 0x0, 0x0, 0x0, 0x1, 0x10, 0x0, 0x0, 0x0, 0x10, 0x0, 0x0, 0x0, 0x5, 0x0, 0x0, 0x0, 0x3c, 0x0, 0x0, 0x0, 0xb8, 0xfe, 0xff, 0xff, 0x2d, 0x0, 0x0, 0x0, 0x73, 0x65, 0x71, 0x75, 0x65, 0x6e, 0x74, 0x69, 0x61, 0x6c, 0x5f, 0x31, 0x2f, 0x64, 0x65, 0x6e, 0x73, 0x65, 0x5f, 0x31, 0x5f, 0x32, 0x2f, 0x42, 0x69, 0x61, 0x73, 0x41, 0x64, 0x64, 0x2f, 0x52, 0x65, 0x61, 0x64, 0x56, 0x61, 0x72, 0x69, 0x61, 0x62, 0x6c, 0x65, 0x4f, 0x70, 0x0, 0x0, 0x0, 0x1, 0x0, 0x0, 0x0, 0x4, 0x0, 0x0, 0x0, 0x8a, 0xff, 0xff, 0xff, 0x0, 0x0, 0x0, 0x1, 0x10, 0x0, 0x0, 0x0, 0x10, 0x0, 0x0, 0x0, 0x4, 0x0, 0x0, 0x0, 0x1c, 0x0, 0x0, 0x0, 0x10, 0xff, 0xff, 0xff, 0xf, 0x0, 0x0, 0x0, 0x61, 0x72, 0x69, 0x74, 0x68, 0x2e, 0x63, 0x6f, 0x6e, 0x73, 0x74, 0x61, 0x6e, 0x74, 0x32, 0x0, 0x1, 0x0, 0x0, 0x0, 0x1, 0x0, 0x0, 0x0, 0xc2, 0xff, 0xff, 0xff, 0x0, 0x0, 0x0, 0x1, 0x10, 0x0, 0x0, 0x0, 0x10, 0x0, 0x0, 0x0, 0x3, 0x0, 0x0, 0x0, 0x1c, 0x0, 0x0, 0x0, 0x48, 0xff, 0xff, 0xff, 0xf, 0x0, 0x0, 0x0, 0x61, 0x72, 0x69, 0x74, 0x68, 0x2e, 0x63, 0x6f, 0x6e, 0x73, 0x74, 0x61, 0x6e, 0x74, 0x31, 0x0, 0x2, 0x0, 0x0, 0x0, 0x4, 0x0, 0x0, 0x0, 0x8, 0x0, 0x0, 0x0, 0x0, 0x0, 0x16, 0x0, 0x18, 0x0, 0x14, 0x0, 0x0, 0x0, 0x10, 0x0, 0xc, 0x0, 0x8, 0x0, 0x0, 0x0, 0x0, 0x0, 0x0, 0x0, 0x7, 0x0, 0x16, 0x0, 0x0, 0x0, 0x0, 0x0, 0x0, 0x1, 0x10, 0x0, 0x0, 0x0, 0x10, 0x0, 0x0, 0x0, 0x2, 0x0, 0x0, 0x0, 0x1c, 0x0, 0x0, 0x0, 0x9c, 0xff, 0xff, 0xff, 0xe, 0x0, 0x0, 0x0, 0x61, 0x72, 0x69, 0x74, 0x68, 0x2e, 0x63, 0x6f, 0x6e, 0x73, 0x74, 0x61, 0x6e, 0x74, 0x0, 0x0, 0x2, 0x0, 0x0, 0x0, 0x1, 0x0, 0x0, 0x0, 0x4, 0x0, 0x0, 0x0, 0x0, 0x0, 0x16, 0x0, 0x1c, 0x0, 0x18, 0x0, 0x0, 0x0, 0x14, 0x0, 0x10, 0x0, 0xc, 0x0, 0x0, 0x0, 0x0, 0x0, 0x8, 0x0, 0x7, 0x0, 0x16, 0x0, 0x0, 0x0, 0x0, 0x0, 0x0, 0x1, 0x14, 0x0, 0x0, 0x0, 0x20, 0x0, 0x0, 0x0, 0x20, 0x0, 0x0, 0x0, 0x1, 0x0, 0x0, 0x0, 0x3c, 0x0, 0x0, 0x0, 0x2, 0x0, 0x0, 0x0, 0xff, 0xff, 0xff, 0xff, 0x2, 0x0, 0x0, 0x0, 0x4, 0x0, 0x4, 0x0, 0x4, 0x0, 0x0, 0x0, 0x1e, 0x0, 0x0, 0x0, 0x73, 0x65, 0x72, 0x76, 0x69, 0x6e, 0x67, 0x5f, 0x64, 0x65, 0x66, 0x61, 0x75, 0x6c, 0x74, 0x5f, 0x6b, 0x65, 0x72, 0x61, 0x73, 0x5f, 0x74, 0x65, 0x6e, 0x73, 0x6f, 0x72, 0x3a, 0x30, 0x0, 0x0, 0x2, 0x0, 0x0, 0x0, 0x1, 0x0, 0x0, 0x0, 0x2, 0x0, 0x0, 0x0, 0x2, 0x0, 0x0, 0x0, 0x20, 0x0, 0x0, 0x0, 0x4, 0x0, 0x0, 0x0, 0xf4, 0xff, 0xff, 0xff, 0xe, 0x0, 0x0, 0x0, 0x0, 0x0, 0x0, 0xe, 0xc, 0x0, 0xc, 0x0, 0xb, 0x0, 0x0, 0x0, 0x0, 0x0, 0x4, 0x0, 0xc, 0x0, 0x0, 0x0, 0x9, 0x0, 0x0, 0x0, 0x0, 0x0, 0x0, 0x9
};
const unsigned int dht_anomaly_model_tflite_len = 2328;

#endif
