
#ifndef DHT_ANOMALY_MODEL_H
#define DHT_ANOMALY_MODEL_H

const unsigned char dht_anomaly_model2_tflite[] = {
  0x1c, 0x00, 0x00, 0x00, 0x54, 0x46, 0x4c, 0x33, 0x14, 0x00, 0x20, 0x00, 
  0x1c, 0x00, 0x18, 0x00, 0x14, 0x00, 0x10, 0x00, 0x0c, 0x00, 0x00, 0x00, 
  0x08, 0x00, 0x04, 0x00, 0x14, 0x00, 0x00, 0x00, 0x1c, 0x00, 0x00, 0x00, 
  0x98, 0x00, 0x00, 0x00, 0xf0, 0x00, 0x00, 0x00, 0x84, 0x0e, 0x00, 0x00, 
  0x94, 0x0e, 0x00, 0x00, 0xe8, 0x15, 0x00, 0x00, 0x03, 0x00, 0x00, 0x00, 
  0x01, 0x00, 0x00, 0x00, 0x10, 0x00, 0x00, 0x00, 0x00, 0x00, 0x0a, 0x00, 
  0x10, 0x00, 0x0c, 0x00, 0x08, 0x00, 0x04, 0x00, 0x0a, 0x00, 0x00, 0x00, 
  0x0c, 0x00, 0x00, 0x00, 0x1c, 0x00, 0x00, 0x00, 0x3c, 0x00, 0x00, 0x00, 
  0x0f, 0x00, 0x00, 0x00, 0x73, 0x65, 0x72, 0x76, 0x69, 0x6e, 0x67, 0x5f, 
  0x64, 0x65, 0x66, 0x61, 0x75, 0x6c, 0x74, 0x00, 0x01, 0x00, 0x00, 0x00, 
  0x04, 0x00, 0x00, 0x00, 0x90, 0xff, 0xff, 0xff, 0x0d, 0x00, 0x00, 0x00, 
  0x04, 0x00, 0x00, 0x00, 0x08, 0x00, 0x00, 0x00, 0x6f, 0x75, 0x74, 0x70, 
  0x75, 0x74, 0x5f, 0x30, 0x00, 0x00, 0x00, 0x00, 0x01, 0x00, 0x00, 0x00, 
  0x04, 0x00, 0x00, 0x00, 0x5e, 0xf1, 0xff, 0xff, 0x04, 0x00, 0x00, 0x00, 
  0x0f, 0x00, 0x00, 0x00, 0x6b, 0x65, 0x72, 0x61, 0x73, 0x5f, 0x74, 0x65, 
  0x6e, 0x73, 0x6f, 0x72, 0x5f, 0x31, 0x30, 0x00, 0x02, 0x00, 0x00, 0x00, 
  0x34, 0x00, 0x00, 0x00, 0x04, 0x00, 0x00, 0x00, 0xdc, 0xff, 0xff, 0xff, 
  0x10, 0x00, 0x00, 0x00, 0x04, 0x00, 0x00, 0x00, 0x13, 0x00, 0x00, 0x00, 
  0x43, 0x4f, 0x4e, 0x56, 0x45, 0x52, 0x53, 0x49, 0x4f, 0x4e, 0x5f, 0x4d, 
  0x45, 0x54, 0x41, 0x44, 0x41, 0x54, 0x41, 0x00, 0x08, 0x00, 0x0c, 0x00, 
  0x08, 0x00, 0x04, 0x00, 0x08, 0x00, 0x00, 0x00, 0x0f, 0x00, 0x00, 0x00, 
  0x04, 0x00, 0x00, 0x00, 0x13, 0x00, 0x00, 0x00, 0x6d, 0x69, 0x6e, 0x5f, 
  0x72, 0x75, 0x6e, 0x74, 0x69, 0x6d, 0x65, 0x5f, 0x76, 0x65, 0x72, 0x73, 
  0x69, 0x6f, 0x6e, 0x00, 0x11, 0x00, 0x00, 0x00, 0x90, 0x0d, 0x00, 0x00, 
  0x88, 0x0d, 0x00, 0x00, 0x18, 0x0d, 0x00, 0x00, 0x08, 0x0b, 0x00, 0x00, 
  0xf8, 0x02, 0x00, 0x00, 0xa8, 0x02, 0x00, 0x00, 0x78, 0x02, 0x00, 0x00, 
  0x5c, 0x02, 0x00, 0x00, 0xcc, 0x01, 0x00, 0x00, 0xbc, 0x00, 0x00, 0x00, 
  0xb4, 0x00, 0x00, 0x00, 0xac, 0x00, 0x00, 0x00, 0xa4, 0x00, 0x00, 0x00, 
  0x9c, 0x00, 0x00, 0x00, 0x94, 0x00, 0x00, 0x00, 0x74, 0x00, 0x00, 0x00, 
  0x04, 0x00, 0x00, 0x00, 0x1e, 0xf2, 0xff, 0xff, 0x04, 0x00, 0x00, 0x00, 
  0x60, 0x00, 0x00, 0x00, 0x0c, 0x00, 0x00, 0x00, 0x08, 0x00, 0x0e, 0x00, 
  0x08, 0x00, 0x04, 0x00, 0x08, 0x00, 0x00, 0x00, 0x10, 0x00, 0x00, 0x00, 
  0x28, 0x00, 0x00, 0x00, 0x00, 0x00, 0x06, 0x00, 0x08, 0x00, 0x04, 0x00, 
  0x06, 0x00, 0x00, 0x00, 0x04, 0x00, 0x00, 0x00, 0x01, 0x00, 0x00, 0x00, 
  0xea, 0x03, 0x00, 0x00, 0x0c, 0x00, 0x18, 0x00, 0x14, 0x00, 0x10, 0x00, 
  0x0c, 0x00, 0x04, 0x00, 0x0c, 0x00, 0x00, 0x00, 0x09, 0x68, 0xd0, 0x75, 
  0x16, 0x28, 0x6e, 0x08, 0x02, 0x00, 0x00, 0x00, 0x02, 0x00, 0x00, 0x00, 
  0x04, 0x00, 0x00, 0x00, 0x06, 0x00, 0x00, 0x00, 0x32, 0x2e, 0x31, 0x39, 
  0x2e, 0x30, 0x00, 0x00, 0x8a, 0xf2, 0xff, 0xff, 0x04, 0x00, 0x00, 0x00, 
  0x10, 0x00, 0x00, 0x00, 0x31, 0x2e, 0x35, 0x2e, 0x30, 0x00, 0x00, 0x00, 
  0x00, 0x00, 0x00, 0x00, 0x00, 0x00, 0x00, 0x00, 0x08, 0xec, 0xff, 0xff, 
  0x0c, 0xec, 0xff, 0xff, 0x10, 0xec, 0xff, 0xff, 0x14, 0xec, 0xff, 0xff, 
  0x18, 0xec, 0xff, 0xff, 0xba, 0xf2, 0xff, 0xff, 0x04, 0x00, 0x00, 0x00, 
  0x00, 0x01, 0x00, 0x00, 0x6b, 0x5b, 0x39, 0xbf, 0x00, 0xf9, 0x32, 0xbe, 
  0xe0, 0xc3, 0x4d, 0x3f, 0xa9, 0xee, 0x90, 0xbe, 0xcc, 0xcc, 0x4b, 0x3f, 
  0x54, 0xf9, 0x65, 0xbb, 0x8d, 0xd0, 0xb6, 0xbe, 0xcd, 0xc3, 0x29, 0x3e, 
  0x06, 0x2c, 0x52, 0x3f, 0x43, 0x33, 0x05, 0x3d, 0xf5, 0x34, 0x9f, 0x3e, 
  0x92, 0x92, 0x5e, 0x3e, 0x27, 0xa3, 0x48, 0x3f, 0xc5, 0xd8, 0x27, 0x3e, 
  0xc0, 0xba, 0x55, 0xbf, 0xdc, 0xa1, 0xac, 0xbb, 0xb5, 0x37, 0x19, 0x3f, 
  0xc8, 0xf4, 0x60, 0xbe, 0x1a, 0x69, 0x90, 0x3d, 0x86, 0xbc, 0xaa, 0xbe, 
  0x0d, 0xcf, 0xd0, 0xbe, 0x8d, 0x86, 0x61, 0x3e, 0xc7, 0xff, 0xf0, 0xbe, 
  0xf1, 0x1f, 0x34, 0x3e, 0x96, 0x8d, 0xf8, 0x3e, 0x39, 0x42, 0x3a, 0xbe, 
  0x2c, 0x0a, 0x66, 0x3e, 0x4e, 0xbb, 0xce, 0xbd, 0x46, 0xf8, 0x37, 0xbf, 
  0xe1, 0xe3, 0x84, 0xba, 0x36, 0x21, 0xef, 0x3e, 0xb1, 0xb9, 0x47, 0x3e, 
  0x7f, 0x2a, 0x19, 0xbf, 0xd2, 0x58, 0x1e, 0x3e, 0xfa, 0x69, 0x12, 0xbf, 
  0x26, 0x13, 0x0e, 0xbe, 0x6f, 0x75, 0x30, 0xbf, 0xd3, 0x6b, 0xf1, 0xbc, 
  0x05, 0x4c, 0x2c, 0x3f, 0x53, 0xda, 0x9d, 0x3d, 0xf4, 0x22, 0xcd, 0x3e, 
  0x14, 0x43, 0x62, 0xbd, 0xe1, 0x64, 0xa6, 0x3e, 0x25, 0xe1, 0x44, 0x3e, 
  0x09, 0x49, 0x5a, 0x3f, 0x07, 0x89, 0xe9, 0x3c, 0xbf, 0x75, 0x10, 0x3d, 
  0xb7, 0x5d, 0xab, 0xbe, 0x24, 0xb6, 0x4f, 0x3f, 0xe0, 0x5a, 0x65, 0x3c, 
  0xcb, 0xd0, 0x4d, 0xbf, 0x8a, 0x1a, 0x63, 0x3e, 0x4e, 0x41, 0x09, 0xbf, 
  0x86, 0xfc, 0xa3, 0x3e, 0x57, 0x18, 0x4d, 0xbf, 0x42, 0xff, 0x6a, 0xbe, 
  0x81, 0xcf, 0x5a, 0xbf, 0xf4, 0x6e, 0x26, 0xba, 0x89, 0xb6, 0xb0, 0x3e, 
  0x2a, 0xc9, 0xaf, 0xbe, 0xdc, 0x6c, 0x1f, 0x3f, 0xec, 0x14, 0xf8, 0x3d, 
  0x18, 0x6c, 0xb1, 0xbe, 0x80, 0x1a, 0x59, 0x3e, 0xc6, 0xf3, 0xff, 0xff, 
  0x04, 0x00, 0x00, 0x00, 0x80, 0x00, 0x00, 0x00, 0xc3, 0x89, 0x0b, 0xbe, 
  0x53, 0x38, 0x2c, 0x3e, 0xd2, 0xbf, 0x99, 0x3e, 0x6a, 0x56, 0x00, 0x3f, 
  0xd3, 0x02, 0xd6, 0x3e, 0x73, 0x01, 0x5e, 0x3d, 0x9b, 0x16, 0x62, 0x3c, 
  0xc2, 0x7f, 0xc7, 0x3e, 0x3f, 0x76, 0xc7, 0xbd, 0xd0, 0x89, 0x0d, 0x3f, 
  0x93, 0x29, 0xde, 0x3d, 0x5c, 0x8a, 0x2a, 0xbe, 0xc6, 0xcf, 0x9f, 0xbd, 
  0x77, 0x8a, 0x96, 0x3d, 0x33, 0x0e, 0x66, 0xbe, 0xe6, 0xba, 0xcc, 0xbd, 
  0xaf, 0xbd, 0xa4, 0x3c, 0x3f, 0x3d, 0xee, 0x3e, 0x6f, 0x5e, 0xd1, 0x3e, 
  0xd4, 0x81, 0xc3, 0x3e, 0xc8, 0x06, 0xe2, 0x3e, 0x60, 0x46, 0xb0, 0xbd, 
  0x3a, 0xb4, 0xbb, 0x3e, 0xa1, 0x1d, 0x52, 0xbe, 0x77, 0x0a, 0xa9, 0x3e, 
  0x52, 0x79, 0x24, 0x3c, 0x43, 0x10, 0x11, 0x3e, 0x42, 0x19, 0x68, 0x3e, 
  0x9d, 0x62, 0xce, 0x3e, 0xdb, 0x1c, 0x07, 0xbe, 0xf5, 0x2e, 0xf1, 0x3e, 
  0x75, 0xfe, 0x8d, 0x3d, 0x52, 0xf4, 0xff, 0xff, 0x04, 0x00, 0x00, 0x00, 
  0x0c, 0x00, 0x00, 0x00, 0x87, 0x67, 0x3e, 0xbe, 0xe3, 0xbd, 0x6c, 0x3e, 
  0x78, 0xee, 0x21, 0xbe, 0x6a, 0xf4, 0xff, 0xff, 0x04, 0x00, 0x00, 0x00, 
  0x20, 0x00, 0x00, 0x00, 0x16, 0x43, 0x80, 0x3e, 0xbc, 0x72, 0x89, 0x3e, 
  0x39, 0x67, 0xba, 0xbc, 0xe0, 0x82, 0x60, 0x2d, 0xbf, 0x21, 0x7a, 0xbe, 
  0x67, 0x05, 0x3c, 0xbe, 0x0c, 0x04, 0xea, 0x3d, 0x8d, 0xc4, 0x87, 0x3e, 
  0x96, 0xf4, 0xff, 0xff, 0x04, 0x00, 0x00, 0x00, 0x40, 0x00, 0x00, 0x00, 
  0x66, 0x0c, 0x27, 0x3e, 0x7c, 0x01, 0xaf, 0x3e, 0xbf, 0x64, 0x8c, 0xbc, 
  0xdb, 0xe9, 0x67, 0x3e, 0x22, 0x1a, 0x6f, 0x3e, 0x69, 0xd2, 0x61, 0x3e, 
  0x8a, 0x7c, 0x1b, 0x3e, 0x0a, 0x9e, 0xfa, 0x3e, 0xb5, 0x28, 0x26, 0xbd, 
  0x61, 0xb2, 0x9b, 0x3e, 0xfb, 0xd3, 0x8b, 0xbe, 0x00, 0x00, 0x00, 0x00, 
  0xfd, 0xa1, 0x44, 0x3e, 0x18, 0x5c, 0x13, 0x3e, 0xca, 0xba, 0xb7, 0x3e, 
  0x43, 0x8f, 0x4c, 0x3e, 0xe2, 0xf4, 0xff, 0xff, 0x04, 0x00, 0x00, 0x00, 
  0x00, 0x08, 0x00, 0x00, 0xe8, 0xa5, 0xff, 0x3e, 0x6e, 0x5c, 0x09, 0xbf, 
  0xf1, 0xba, 0x9e, 0xbe, 0xa6, 0xcc, 0x02, 0x3f, 0x33, 0x72, 0x99, 0xbe, 
  0xc8, 0xfd, 0x41, 0xbe, 0x1a, 0x64, 0xf9, 0xbe, 0x13, 0x81, 0x41, 0x3f, 
  0x74, 0x5c, 0xb8, 0xbe, 0x94, 0x78, 0x4b, 0x3e, 0x3d, 0x43, 0x19, 0xbe, 
  0x65, 0x03, 0xc7, 0x3b, 0x9a, 0xb5, 0xdb, 0x3c, 0xc0, 0xdc, 0xdf, 0x3d, 
  0x75, 0x5b, 0x51, 0x3f, 0xb6, 0xe6, 0xb6, 0xbe, 0xac, 0xd9, 0xed, 0x3e, 
  0xca, 0x0f, 0x85, 0x3d, 0x65, 0x42, 0x54, 0x3f, 0x4a, 0x37, 0xea, 0x3b, 
  0x50, 0x24, 0x22, 0x3e, 0xb0, 0x1a, 0x96, 0xbe, 0x44, 0x5d, 0xd8, 0x3d, 
  0xf0, 0x09, 0x10, 0x3d, 0xa9, 0x9e, 0xfd, 0x3d, 0xdb, 0x50, 0xaf, 0x3e, 
  0x23, 0x4d, 0x8f, 0x3e, 0x41, 0x33, 0x52, 0x3e, 0xd3, 0x85, 0x2c, 0x3f, 
  0x28, 0x7c, 0x6a, 0xbc, 0x7a, 0xdf, 0x51, 0x3d, 0x19, 0xeb, 0x18, 0xbd, 
  0x99, 0xe7, 0xe2, 0xbc, 0x9f, 0xa1, 0xae, 0x3e, 0x31, 0xf4, 0x19, 0x3f, 
  0x4a, 0x51, 0x58, 0x3e, 0x1a, 0xa5, 0x1c, 0x3f, 0x01, 0x09, 0xbb, 0x3d, 
  0x41, 0xd0, 0x9a, 0xbe, 0x93, 0xe2, 0x59, 0xbd, 0xdf, 0xfc, 0x02, 0xbe, 
  0xd8, 0x24, 0x65, 0x3e, 0xc2, 0x8b, 0x5f, 0xbe, 0x15, 0x0f, 0xd7, 0xbe, 
  0x3c, 0xa9, 0x88, 0xbe, 0x83, 0xa7, 0x37, 0xbe, 0x2e, 0xd4, 0xba, 0xbf, 
  0x3e, 0x4b, 0x4f, 0xbe, 0x7e, 0x70, 0x52, 0xbe, 0x24, 0x2f, 0xe8, 0x3e, 
  0x27, 0x86, 0xb5, 0x3c, 0xdc, 0xd6, 0xb7, 0x3e, 0x78, 0xea, 0x53, 0x3f, 
  0x21, 0xba, 0xa0, 0x3d, 0xff, 0x7f, 0x01, 0x3f, 0xfd, 0x72, 0x90, 0xbe, 
  0x2a, 0xac, 0x6e, 0x3f, 0x0d, 0xdc, 0x6c, 0xbe, 0x36, 0x18, 0xf2, 0x3d, 
  0xb8, 0x09, 0x3f, 0x3d, 0x23, 0x5c, 0xec, 0x3e, 0xed, 0x1f, 0x85, 0x3e, 
  0x13, 0x57, 0x3c, 0x3f, 0xc7, 0x1f, 0x1e, 0x3e, 0xf7, 0xe1, 0xb2, 0x3d, 
  0x95, 0x33, 0x27, 0xbe, 0xce, 0x89, 0x1a, 0xbe, 0xf7, 0xb3, 0x90, 0x3e, 
  0x74, 0x2d, 0x93, 0xbe, 0x26, 0xd5, 0x27, 0x3e, 0xa4, 0x24, 0xfc, 0xbd, 
  0x9e, 0x56, 0x71, 0xbe, 0xf0, 0xd4, 0x86, 0xbd, 0xf9, 0x33, 0xa4, 0xbe, 
  0x6c, 0x82, 0x89, 0xbe, 0x7d, 0x70, 0x9f, 0x3e, 0x70, 0xa6, 0x9f, 0x3c, 
  0x9e, 0x6f, 0x1b, 0x3e, 0xc0, 0x7c, 0x6b, 0xbe, 0x95, 0xa8, 0x39, 0x3e, 
  0x9d, 0x97, 0x86, 0x3e, 0x61, 0x63, 0xd1, 0xbe, 0xfb, 0xf0, 0x97, 0x3e, 
  0x30, 0x93, 0x21, 0xbe, 0x77, 0x3d, 0xaa, 0x3e, 0xa1, 0x80, 0xda, 0xbd, 
  0x0a, 0x24, 0x40, 0x3e, 0x08, 0x89, 0x1a, 0xbd, 0x7c, 0x38, 0x33, 0x3e, 
  0x42, 0x48, 0xba, 0xbe, 0x69, 0x89, 0x6b, 0x3e, 0xe8, 0x25, 0x83, 0xbe, 
  0x53, 0xfc, 0x10, 0x3e, 0xd0, 0xdc, 0x8d, 0xbc, 0x23, 0x58, 0x94, 0xbe, 
  0xb7, 0x54, 0x41, 0xbe, 0xe3, 0x38, 0x0f, 0xbc, 0x32, 0x52, 0x0a, 0xbe, 
  0x86, 0x96, 0xf1, 0x3c, 0x20, 0xce, 0x12, 0x3d, 0x96, 0xfc, 0x63, 0x3f, 
  0x8d, 0xd3, 0xda, 0x3c, 0x5f, 0xc4, 0x5b, 0xbf, 0xc1, 0x01, 0xcf, 0x3e, 
  0x3d, 0x20, 0x43, 0xbe, 0xfa, 0xbd, 0x5e, 0x3d, 0x3a, 0x92, 0x01, 0xbd, 
  0xd9, 0xa0, 0x09, 0xbf, 0xa2, 0x56, 0x2e, 0xbd, 0x5e, 0x78, 0xd5, 0x3d, 
  0x2c, 0x33, 0xcb, 0xbf, 0x22, 0xac, 0x59, 0xbe, 0xc7, 0x10, 0xb9, 0xbe, 
  0xd5, 0xa0, 0x71, 0xbe, 0xa4, 0xae, 0xbf, 0x3e, 0xe0, 0xd9, 0xff, 0xbd, 
  0x27, 0x04, 0xcb, 0x3d, 0x80, 0xab, 0x41, 0xbe, 0x68, 0xfe, 0x03, 0x3e, 
  0xc4, 0x0e, 0x8c, 0xbe, 0x6c, 0xa7, 0xd4, 0x3e, 0xa4, 0xd8, 0xff, 0xbc, 
  0xff, 0xc8, 0x9e, 0xbc, 0xa8, 0xbd, 0x30, 0xbe, 0xc4, 0x0d, 0xa9, 0x3c, 
  0x68, 0x40, 0x8d, 0xbe, 0x30, 0x31, 0x77, 0x3d, 0x60, 0x85, 0xde, 0xb6, 
  0x84, 0x51, 0x18, 0xbf, 0x06, 0x8d, 0x02, 0x3f, 0x20, 0x9e, 0x68, 0x3f, 
  0x0a, 0xe1, 0xbf, 0x3e, 0x04, 0x62, 0x83, 0x3f, 0xab, 0x78, 0x87, 0xbc, 
  0x10, 0x67, 0xd6, 0x3e, 0x3a, 0xe4, 0xc5, 0xbd, 0x77, 0xe5, 0x51, 0x3e, 
  0x4f, 0xd5, 0xc4, 0x3e, 0x14, 0x39, 0x98, 0x3b, 0xcf, 0xad, 0xc2, 0xbe, 
  0x9a, 0x38, 0x1d, 0x3e, 0x4c, 0x2a, 0xbd, 0x3e, 0x07, 0xa8, 0xb8, 0xbf, 
  0x11, 0x3a, 0xb6, 0x3e, 0x64, 0x48, 0x03, 0xbf, 0xec, 0xbe, 0x17, 0x3e, 
  0x2f, 0x9f, 0xb3, 0x3c, 0x22, 0x18, 0x0e, 0x3f, 0x31, 0xfd, 0x08, 0x3e, 
  0x97, 0xdd, 0x03, 0xbe, 0x82, 0x84, 0x42, 0x3f, 0xa6, 0x35, 0x2f, 0xbe, 
  0xd9, 0xa3, 0x1d, 0x3f, 0x54, 0x9a, 0x93, 0xbe, 0xbf, 0xe7, 0x17, 0xbc, 
  0x6e, 0xe7, 0x2b, 0xbd, 0x86, 0xdf, 0x17, 0xbe, 0xeb, 0x5e, 0xb5, 0x3d, 
  0x76, 0x7f, 0x17, 0x3f, 0xb3, 0x5e, 0x6e, 0x3e, 0x37, 0x16, 0xe3, 0x3d, 
  0x4a, 0xb3, 0x80, 0x3d, 0xb1, 0xbc, 0x96, 0xbe, 0x50, 0xf1, 0x5c, 0x3e, 
  0xf0, 0xfe, 0x01, 0x3e, 0x9b, 0x39, 0x63, 0x3e, 0x0d, 0x57, 0x63, 0x3e, 
  0x8c, 0x6c, 0x84, 0x3f, 0x69, 0xf4, 0x90, 0x3d, 0xcc, 0x01, 0x27, 0x3e, 
  0x1f, 0xe5, 0xab, 0x3e, 0xa3, 0xb1, 0xa6, 0x3e, 0x0a, 0x73, 0xf6, 0xbe, 
  0xb4, 0x69, 0x8e, 0xbe, 0xe4, 0x9c, 0x31, 0xbf, 0xcc, 0xb1, 0xad, 0xbe, 
  0x76, 0x10, 0xb4, 0x3e, 0xad, 0xf2, 0x60, 0x3d, 0xd6, 0xf7, 0xde, 0x3e, 
  0x64, 0x38, 0x15, 0x3d, 0x2e, 0xce, 0xaf, 0x3e, 0xe8, 0x08, 0x8c, 0xbe, 
  0x6b, 0x24, 0x88, 0xbe, 0x1a, 0xd1, 0xb7, 0x3d, 0xe9, 0xe4, 0xc8, 0x3e, 
  0x75, 0xc5, 0xbc, 0x3c, 0xa6, 0xdf, 0xbe, 0x3e, 0xab, 0x11, 0xbd, 0x3e, 
  0x03, 0xfb, 0x1d, 0x3f, 0xeb, 0x1b, 0x8c, 0x3c, 0x15, 0xc5, 0x94, 0x3e, 
  0x28, 0xad, 0xa9, 0x3e, 0x20, 0xa1, 0x87, 0xbd, 0xba, 0xbf, 0x84, 0x3e, 
  0xb4, 0xd2, 0x2d, 0x3f, 0x6a, 0x5d, 0x03, 0xbe, 0x36, 0xf0, 0x15, 0x3f, 
  0x62, 0xc5, 0xcc, 0x3e, 0x81, 0x36, 0x06, 0x3f, 0x9c, 0xdf, 0xf8, 0xbe, 
  0x04, 0xff, 0x8c, 0xbb, 0x0d, 0x66, 0xde, 0x3e, 0x32, 0x8f, 0x18, 0xbe, 
  0xdf, 0x70, 0x90, 0xbe, 0x2a, 0x93, 0xa0, 0x3e, 0xd1, 0x34, 0xf1, 0x3e, 
  0x05, 0x3e, 0xc6, 0xbf, 0xc4, 0x30, 0xc7, 0x3c, 0x73, 0x5c, 0x86, 0xbe, 
  0x51, 0x46, 0xfc, 0xbd, 0x1a, 0x84, 0x9f, 0x3c, 0xc9, 0xb7, 0x25, 0x3f, 
  0x72, 0x69, 0x0f, 0x3f, 0xce, 0xe0, 0x5d, 0x3e, 0xc1, 0xae, 0x09, 0x3f, 
  0x00, 0x1d, 0x68, 0x3e, 0x48, 0xa2, 0x20, 0x3f, 0x4b, 0xa4, 0xca, 0x3d, 
  0xed, 0xe6, 0x2c, 0xbe, 0x72, 0x54, 0x47, 0xbe, 0x22, 0xc7, 0x00, 0xbe, 
  0xc3, 0x77, 0x94, 0x3e, 0x38, 0x8c, 0x0a, 0x3f, 0x43, 0x09, 0x78, 0x3e, 
  0xdc, 0x08, 0xa6, 0xbe, 0xf3, 0x82, 0xd9, 0x3e, 0xc8, 0xd9, 0x27, 0x3f, 
  0xe6, 0x63, 0x04, 0x3f, 0x79, 0xf5, 0x24, 0x3f, 0xce, 0xba, 0xbe, 0x3e, 
  0x3c, 0x54, 0x87, 0xbe, 0x1f, 0x7e, 0xc4, 0x3e, 0x04, 0xec, 0x95, 0xbe, 
  0xfa, 0x1d, 0x0f, 0x3f, 0xf6, 0x36, 0x2a, 0xbe, 0x25, 0x67, 0xa2, 0xbe, 
  0x4a, 0xd0, 0xa6, 0xbe, 0x16, 0x19, 0x88, 0xbe, 0xcd, 0x02, 0x92, 0xbf, 
  0x1d, 0x31, 0x64, 0x3e, 0x97, 0xae, 0x7a, 0xbe, 0x6b, 0x3c, 0xbf, 0x3d, 
  0xf6, 0x17, 0xb5, 0x3e, 0x91, 0x96, 0x62, 0x3e, 0x1f, 0x3c, 0x9f, 0x3e, 
  0x38, 0x0d, 0x13, 0x3d, 0x04, 0x23, 0x10, 0x3d, 0x57, 0xf9, 0xb2, 0xbe, 
  0x77, 0xed, 0xdf, 0x3e, 0xb9, 0x6d, 0xa4, 0xbd, 0xff, 0x66, 0xc7, 0xbd, 
  0xbd, 0x7f, 0x8d, 0x3e, 0x76, 0x19, 0x32, 0x3f, 0x14, 0x63, 0xfb, 0x3d, 
  0xcb, 0xe9, 0x1f, 0x3f, 0x51, 0xdf, 0x66, 0xbd, 0x08, 0x71, 0xb6, 0x3e, 
  0x16, 0xf0, 0xdc, 0x3d, 0xeb, 0xc2, 0x88, 0xbe, 0xd1, 0x39, 0x8e, 0xbe, 
  0x79, 0x92, 0xf0, 0x3d, 0x36, 0xef, 0xf4, 0x3d, 0xde, 0xdb, 0x22, 0x3e, 
  0xbb, 0x49, 0x31, 0xbe, 0xaa, 0x07, 0x7c, 0xbd, 0x99, 0x71, 0xa4, 0xbd, 
  0x3b, 0x81, 0x6d, 0x3e, 0x3e, 0xe6, 0x36, 0x3e, 0x9b, 0x95, 0x8b, 0x3e, 
  0x5c, 0x2a, 0x03, 0x3e, 0x40, 0x85, 0xe4, 0x3d, 0x65, 0x9b, 0x3d, 0x3d, 
  0xcb, 0x77, 0x87, 0x3e, 0x6e, 0x98, 0x97, 0x3e, 0x45, 0x90, 0x9b, 0xbe, 
  0xc6, 0x3f, 0x12, 0x3e, 0xc2, 0x9f, 0x80, 0xbe, 0x28, 0xf9, 0x32, 0x3e, 
  0x37, 0xe5, 0x3b, 0xbd, 0x33, 0x26, 0xbd, 0xbe, 0xcf, 0x90, 0x50, 0x3e, 
  0x71, 0x2c, 0x00, 0x3e, 0xb7, 0x54, 0xbf, 0xbc, 0x5e, 0x13, 0x0e, 0xbe, 
  0x15, 0xf2, 0x93, 0xbe, 0x92, 0x47, 0x2f, 0x3e, 0x3d, 0xfc, 0xce, 0xbe, 
  0x9b, 0x12, 0x9a, 0x3c, 0xa3, 0x3d, 0x04, 0x3f, 0x79, 0x44, 0x0a, 0xbe, 
  0x79, 0x0d, 0xde, 0xbe, 0x05, 0x7e, 0xd8, 0x3e, 0x77, 0x06, 0x89, 0xbe, 
  0xd4, 0xb1, 0x25, 0x3d, 0x24, 0x97, 0xf3, 0xbe, 0xfe, 0xc5, 0xab, 0x3f, 
  0x32, 0x85, 0x4b, 0xbf, 0xc4, 0x35, 0x45, 0x3e, 0x8f, 0xc1, 0x99, 0x3e, 
  0xd7, 0x65, 0x07, 0x3f, 0xc5, 0xe3, 0x04, 0xbf, 0x81, 0x93, 0x2b, 0x3e, 
  0xec, 0xf2, 0xb7, 0x3f, 0x4e, 0x21, 0xfd, 0xbd, 0x7f, 0x93, 0x8a, 0x3e, 
  0x58, 0x2a, 0xfb, 0x3e, 0x2a, 0x47, 0x55, 0x3f, 0x47, 0x57, 0x5f, 0x3e, 
  0xab, 0x66, 0x61, 0x3e, 0xe9, 0x34, 0xf6, 0xbd, 0x58, 0x0d, 0xa5, 0xbd, 
  0xb8, 0x9d, 0x4e, 0x3e, 0x51, 0x5d, 0xb7, 0xbe, 0xe4, 0x5d, 0x9f, 0x3e, 
  0x35, 0x35, 0xd5, 0x3e, 0x0e, 0xa2, 0x42, 0x3f, 0x58, 0x98, 0x40, 0x3f, 
  0x77, 0xb3, 0x80, 0xbe, 0xdf, 0xa4, 0x52, 0xbe, 0x3f, 0x02, 0xbb, 0x3e, 
  0xa9, 0x15, 0x46, 0x3e, 0xe1, 0xa5, 0xd3, 0x3e, 0x60, 0x2e, 0x0d, 0x3f, 
  0x91, 0xa8, 0xb3, 0xbe, 0x92, 0x0e, 0x85, 0x3d, 0xc3, 0xa9, 0xbd, 0x3e, 
  0x48, 0x28, 0xf3, 0x3e, 0x3f, 0x44, 0xb7, 0xbf, 0x71, 0xa2, 0xcc, 0x3d, 
  0x8a, 0x80, 0x1c, 0xbe, 0xdb, 0xf1, 0x52, 0xbe, 0xc5, 0x1e, 0x01, 0xbe, 
  0xfa, 0xcd, 0x19, 0x3f, 0xe8, 0xa2, 0x71, 0x3e, 0x46, 0x5e, 0xf7, 0x3d, 
  0xac, 0xfd, 0x54, 0x3e, 0x44, 0x7d, 0x10, 0xbe, 0xe1, 0x85, 0xee, 0xbe, 
  0x06, 0x18, 0x6f, 0xbf, 0xed, 0xc7, 0x81, 0x3e, 0x79, 0xf5, 0xe8, 0xbd, 
  0x17, 0x7e, 0x7c, 0x3e, 0x13, 0x55, 0xdc, 0x3e, 0x60, 0xce, 0x1f, 0xbe, 
  0xff, 0xdd, 0xb7, 0x3e, 0x3c, 0x09, 0xe5, 0xbe, 0x4a, 0x05, 0xe9, 0xbe, 
  0x6a, 0x73, 0xba, 0xbc, 0x38, 0xf0, 0x98, 0xbf, 0x37, 0xa7, 0x91, 0x3e, 
  0xd6, 0x7f, 0x08, 0xbe, 0xd0, 0xc7, 0x2b, 0x3e, 0x88, 0xc1, 0x1f, 0xbe, 
  0xd3, 0x61, 0x8f, 0xbe, 0xb0, 0x02, 0x7a, 0xbe, 0xb3, 0x55, 0x8e, 0xbe, 
  0xf0, 0x22, 0xa9, 0x3d, 0x20, 0x1c, 0xa1, 0xbc, 0xe7, 0xa4, 0x80, 0xbe, 
  0x98, 0x8a, 0x0b, 0xbd, 0xe0, 0xbd, 0x78, 0xbd, 0x9f, 0x04, 0xaa, 0x3e, 
  0x87, 0x85, 0x36, 0xbe, 0xc0, 0xc2, 0x1b, 0x3c, 0x90, 0x60, 0x86, 0xbc, 
  0x60, 0x40, 0x9b, 0x3c, 0xa2, 0x5f, 0x57, 0xbe, 0x97, 0xa7, 0xa3, 0xbe, 
  0x80, 0x5b, 0x10, 0xbe, 0xe4, 0xff, 0x8e, 0xbd, 0x42, 0xae, 0x91, 0xbe, 
  0x5c, 0x1b, 0x9b, 0xbd, 0xa6, 0xc2, 0xed, 0xbd, 0xd9, 0xeb, 0x27, 0xbe, 
  0x70, 0x0e, 0x97, 0xbd, 0xfa, 0xbf, 0x85, 0xbe, 0xea, 0xe5, 0x68, 0x3e, 
  0x5e, 0x52, 0x4b, 0x3e, 0xa5, 0xc4, 0x99, 0xbe, 0xa8, 0x4a, 0xab, 0xbd, 
  0xc0, 0xda, 0x45, 0x3d, 0x52, 0xd6, 0x89, 0xbe, 0x96, 0x4f, 0x33, 0x3e, 
  0x38, 0x91, 0xf6, 0x3d, 0xf4, 0x1f, 0x41, 0x3e, 0x85, 0xff, 0x01, 0x3d, 
  0xa6, 0xd4, 0xfc, 0xbe, 0x66, 0xf7, 0xfc, 0x3e, 0x2c, 0x03, 0xa0, 0x3c, 
  0xdd, 0x68, 0x95, 0x3d, 0x05, 0x47, 0x25, 0xbf, 0x2f, 0xaf, 0x82, 0x3e, 
  0xd5, 0x0d, 0x9e, 0xbe, 0xe1, 0x70, 0xae, 0x3e, 0x56, 0xab, 0xa5, 0x3e, 
  0x1d, 0x6c, 0x68, 0x3e, 0x6e, 0xc3, 0x11, 0x3d, 0x71, 0xd7, 0xd2, 0x3d, 
  0x68, 0xd7, 0x2c, 0x3f, 0x74, 0xf6, 0xb7, 0xbd, 0x84, 0xcd, 0xf8, 0x3c, 
  0x5c, 0x3e, 0x03, 0x3f, 0xa9, 0x34, 0x20, 0x3f, 0x60, 0xa4, 0xfc, 0xbd, 
  0x7d, 0xfa, 0x2d, 0xbe, 0x5b, 0x35, 0x51, 0x3e, 0xb4, 0x03, 0xb8, 0xbe, 
  0xf8, 0x31, 0xa5, 0xbe, 0xd8, 0xb6, 0x18, 0xbe, 0x72, 0x3b, 0x00, 0xbe, 
  0x2b, 0x63, 0xcf, 0x3e, 0x3a, 0xaf, 0x00, 0x3f, 0x07, 0x1a, 0x25, 0x3f, 
  0x41, 0x4c, 0xb1, 0xbe, 0xe0, 0x8a, 0x2a, 0x3e, 0x6b, 0x90, 0x3f, 0x3d, 
  0xb1, 0xbc, 0x65, 0x3d, 0x16, 0xb4, 0x95, 0x3d, 0x78, 0x2c, 0xd4, 0xbe, 
  0x7a, 0x31, 0x98, 0xbb, 0x92, 0xe4, 0x71, 0xbd, 0x5f, 0x1f, 0xdf, 0x3d, 
  0x56, 0xd9, 0x97, 0x3c, 0x17, 0xf0, 0x30, 0x3f, 0x2f, 0x01, 0x20, 0xbe, 
  0xdb, 0xce, 0xae, 0x3d, 0x18, 0x32, 0x73, 0x3e, 0xba, 0xcd, 0x01, 0xbd, 
  0x6d, 0x30, 0xbc, 0xbe, 0x80, 0x34, 0x1f, 0x3e, 0x5c, 0x6f, 0xa8, 0x3f, 
  0xfc, 0xef, 0x81, 0xbe, 0x6c, 0xa8, 0xa7, 0x3e, 0xf0, 0xcb, 0x16, 0x3f, 
  0x4c, 0xe0, 0x2d, 0x3f, 0x73, 0x6c, 0x1c, 0xbe, 0xdd, 0x7d, 0x63, 0x3e, 
  0x7d, 0x1b, 0x93, 0x3d, 0xce, 0x23, 0x83, 0xbd, 0x57, 0x5c, 0x9b, 0xbe, 
  0xf8, 0xf5, 0x8b, 0xbe, 0x08, 0xf7, 0x10, 0x3f, 0x64, 0x7e, 0x0b, 0x3b, 
  0xe1, 0x33, 0x27, 0x3f, 0x5c, 0x04, 0x07, 0x3f, 0xf2, 0x04, 0x80, 0xbe, 
  0xa4, 0x90, 0x84, 0xbd, 0x9e, 0x58, 0xf6, 0x3e, 0x96, 0xc9, 0xb1, 0xbe, 
  0x15, 0x27, 0xe1, 0x3e, 0x7e, 0x83, 0xb8, 0x3f, 0x02, 0x64, 0xf7, 0x3e, 
  0x24, 0xc7, 0x86, 0x3f, 0x30, 0xd8, 0xbe, 0x3d, 0x8b, 0x39, 0xe4, 0x3e, 
  0x21, 0xa8, 0x1d, 0xbe, 0xbe, 0x1f, 0x55, 0x3e, 0xf0, 0x9a, 0xed, 0x3e, 
  0xf1, 0x40, 0xea, 0x3d, 0xda, 0xf6, 0xa0, 0xbd, 0x0a, 0xd7, 0xf5, 0x3e, 
  0x8a, 0x45, 0x21, 0xbd, 0x83, 0xb2, 0xb0, 0xbf, 0x5a, 0x8e, 0xbc, 0x3e, 
  0x53, 0x72, 0x34, 0xbe, 0xca, 0x09, 0x7f, 0x3d, 0x61, 0x90, 0x7a, 0x3e, 
  0x26, 0x8f, 0x3a, 0x3f, 0xb5, 0xdb, 0x40, 0x3f, 0x33, 0x3d, 0x8a, 0x3e, 
  0x18, 0xc7, 0x54, 0x3f, 0xc7, 0x4b, 0xd2, 0xbd, 0xf6, 0xca, 0x96, 0x3f, 
  0x40, 0xbf, 0xd9, 0xbe, 0x91, 0xf5, 0x56, 0xbe, 0x18, 0x23, 0xd6, 0xbe, 
  0x82, 0xf6, 0xbe, 0xbe, 0x9e, 0xad, 0x9c, 0xbe, 0xe4, 0xf5, 0x1a, 0x3f, 
  0x62, 0x25, 0x8d, 0xbe, 0x58, 0x2e, 0x86, 0x3e, 0x80, 0xc5, 0xef, 0xbd, 
  0x7d, 0xda, 0xb8, 0xbe, 0xe6, 0xc0, 0x98, 0x3d, 0xf1, 0xb9, 0x9c, 0x3c, 
  0x16, 0xfe, 0x36, 0x3e, 0x4d, 0x62, 0x86, 0xbe, 0x86, 0x96, 0xfc, 0x3e, 
  0xa8, 0xeb, 0xd9, 0xbe, 0xb8, 0x31, 0x8d, 0x3e, 0x30, 0x27, 0x1b, 0x3e, 
  0x19, 0x3f, 0x46, 0xbd, 0xc1, 0x1b, 0x29, 0xbe, 0x7c, 0x2f, 0x7b, 0x3d, 
  0x08, 0x25, 0x28, 0x3f, 0xaf, 0x37, 0x99, 0xbe, 0xa7, 0xb2, 0x10, 0x3f, 
  0x6e, 0x6f, 0xec, 0x3e, 0x84, 0x9e, 0x17, 0x3f, 0xa0, 0x53, 0x4c, 0xbe, 
  0x43, 0xa8, 0x39, 0xbe, 0x62, 0x39, 0xc4, 0x3e, 0xde, 0x2d, 0x94, 0x3e, 
  0xf5, 0x69, 0x3d, 0x3e, 0xb9, 0x64, 0x90, 0xbe, 0x1a, 0x59, 0xf1, 0x3e, 
  0xd3, 0x17, 0xa0, 0x3e, 0x4e, 0x94, 0xfe, 0x3e, 0x89, 0x23, 0xeb, 0x3e, 
  0x9a, 0xfe, 0x8b, 0xbe, 0x79, 0x06, 0x09, 0xbe, 0x09, 0x8b, 0x5b, 0xbe, 
  0xee, 0xfc, 0xff, 0xff, 0x04, 0x00, 0x00, 0x00, 0x00, 0x02, 0x00, 0x00, 
  0x3e, 0x27, 0x10, 0xbe, 0xfc, 0x65, 0x4d, 0x3f, 0x8b, 0xe7, 0x50, 0x3e, 
  0x99, 0x59, 0xc6, 0x3e, 0xd9, 0xae, 0x94, 0x3f, 0xe4, 0xd2, 0x76, 0x3e, 
  0xe7, 0xec, 0x60, 0x3f, 0xe4, 0x04, 0x07, 0x3f, 0x59, 0xb9, 0xa2, 0xbe, 
  0xd9, 0x99, 0x21, 0xbe, 0x36, 0x08, 0xd2, 0xbe, 0x68, 0x8c, 0x6c, 0x3e, 
  0x40, 0x0c, 0xfd, 0x3d, 0xc3, 0x97, 0xeb, 0xbe, 0xa7, 0xd0, 0xae, 0x3f, 
  0x87, 0x9c, 0xf8, 0xbe, 0x67, 0xcb, 0x79, 0x3f, 0xf1, 0xb2, 0xe0, 0x3e, 
  0xc0, 0x8d, 0x05, 0x3d, 0x21, 0xaa, 0xac, 0xbe, 0x7f, 0x50, 0xb7, 0xbe, 
  0x82, 0x9d, 0xc1, 0x3e, 0xee, 0x0b, 0xb5, 0x3d, 0xf8, 0x89, 0xb6, 0x3d, 
  0x6c, 0x82, 0xa0, 0x3e, 0x3c, 0x2d, 0x9e, 0x3f, 0xda, 0xa4, 0x98, 0xbf, 
  0x68, 0x68, 0xfa, 0x3e, 0x9b, 0xc0, 0x98, 0x3f, 0xff, 0x24, 0x4c, 0x3f, 
  0xb6, 0x70, 0xf0, 0xbc, 0xf6, 0x9f, 0x3d, 0x3f, 0x5d, 0x8d, 0xc7, 0xbe, 
  0xd4, 0x9a, 0xf6, 0xbe, 0xf9, 0x2f, 0x5d, 0xbe, 0x18, 0xd0, 0xe2, 0xbe, 
  0x64, 0xeb, 0xc1, 0xbe, 0x26, 0x2e, 0x94, 0x3e, 0xa1, 0xcb, 0xc1, 0xbd, 
  0xb8, 0xfc, 0xc8, 0xbe, 0x37, 0x58, 0x94, 0xbe, 0xd8, 0x4a, 0x35, 0x3e, 
  0x02, 0xf6, 0xe5, 0xbe, 0x60, 0x21, 0xb0, 0xbd, 0x1f, 0x99, 0x25, 0xbe, 
  0x28, 0xca, 0x80, 0x3e, 0x38, 0x16, 0x38, 0x3e, 0x91, 0x6e, 0xdc, 0xbe, 
  0x98, 0x24, 0x2b, 0x3e, 0xfc, 0x58, 0x93, 0xbe, 0xb8, 0xdb, 0xe4, 0x3e, 
  0x74, 0x63, 0xcf, 0x3e, 0xf0, 0x63, 0x1e, 0xbe, 0xc0, 0xae, 0x22, 0xbe, 
  0x1c, 0x41, 0xe3, 0xbe, 0x30, 0xf6, 0x7f, 0xbe, 0x60, 0x33, 0x30, 0xbd, 
  0x2c, 0xe5, 0x93, 0x3e, 0x74, 0x02, 0x8a, 0x3e, 0x18, 0xc8, 0x42, 0xbe, 
  0x10, 0xd7, 0x35, 0xbe, 0xc0, 0x64, 0x83, 0x3c, 0x70, 0x26, 0xf3, 0x3e, 
  0xfc, 0x1a, 0x98, 0xbe, 0x2f, 0x05, 0xd0, 0x3e, 0xe0, 0x98, 0xdc, 0xbe, 
  0xd4, 0x77, 0x08, 0xbe, 0x48, 0x8c, 0x93, 0xbf, 0x53, 0x79, 0x9a, 0xbf, 
  0x3a, 0xbe, 0x78, 0x3e, 0x22, 0x82, 0x8d, 0xbf, 0x38, 0xe5, 0xe0, 0x3c, 
  0xbc, 0x2c, 0xf2, 0xbe, 0x06, 0x81, 0xa2, 0x3e, 0x1e, 0x71, 0x90, 0x3c, 
  0xe0, 0x5e, 0x84, 0x3e, 0x43, 0x06, 0x07, 0x3f, 0xc3, 0xf9, 0xd6, 0x3e, 
  0xfb, 0xe6, 0xa4, 0xbf, 0x95, 0xc9, 0xd0, 0x3e, 0x38, 0x19, 0x69, 0xbf, 
  0x53, 0xe3, 0xe0, 0x3e, 0x46, 0x0c, 0x81, 0xbc, 0x0d, 0x56, 0x42, 0xbf, 
  0x4b, 0x4e, 0x8e, 0xbd, 0x4e, 0x84, 0x98, 0x3e, 0xf1, 0x03, 0xb9, 0x3e, 
  0x23, 0xd0, 0x06, 0xbf, 0xd6, 0x7c, 0x3f, 0xbe, 0x1a, 0xe8, 0x9a, 0xbf, 
  0x43, 0xcc, 0x8b, 0x3f, 0x64, 0x0e, 0xb6, 0x3e, 0x0f, 0x91, 0xc7, 0xbe, 
  0xba, 0x45, 0x59, 0xbf, 0xe3, 0xaa, 0xf7, 0x3d, 0x97, 0x20, 0x7e, 0xbf, 
  0x28, 0x90, 0x17, 0xbf, 0x5e, 0x87, 0x42, 0x3e, 0x08, 0x4b, 0x9f, 0xbd, 
  0x3e, 0x65, 0x7e, 0x3e, 0x45, 0x4d, 0x2e, 0x3f, 0x8f, 0x29, 0xb5, 0x3e, 
  0x76, 0x50, 0xe1, 0x3e, 0xe7, 0x6d, 0x51, 0x3f, 0xff, 0x7a, 0xd1, 0xbe, 
  0x1a, 0x02, 0x3d, 0xbe, 0x96, 0x74, 0x81, 0x3f, 0xd8, 0x3d, 0x61, 0xbe, 
  0x78, 0x41, 0x0b, 0xbf, 0xe0, 0x9b, 0x58, 0x3e, 0x4c, 0xf5, 0x90, 0x3e, 
  0xa4, 0x27, 0xc2, 0xbe, 0x81, 0x3b, 0xa7, 0x3f, 0x0c, 0xee, 0x6f, 0x3e, 
  0xe9, 0xf9, 0x91, 0xbe, 0xa9, 0x83, 0x6b, 0x3e, 0xb2, 0x7b, 0x53, 0xbc, 
  0xfc, 0xfa, 0x2f, 0x3f, 0xf4, 0x2b, 0xbf, 0xbe, 0x19, 0x0a, 0xe8, 0x3e, 
  0x84, 0x0f, 0xdf, 0xbe, 0x21, 0x5f, 0x55, 0x3f, 0x73, 0x25, 0xb2, 0xbf, 
  0x40, 0xd7, 0xab, 0xbe, 0x18, 0xc2, 0xa9, 0x3f, 0xa3, 0x26, 0xa5, 0x3f, 
  0xdd, 0x86, 0x60, 0xbd, 0x91, 0x41, 0x95, 0x3f, 0xfa, 0xfe, 0xff, 0xff, 
  0x04, 0x00, 0x00, 0x00, 0x60, 0x00, 0x00, 0x00, 0x04, 0x7f, 0xd2, 0xbf, 
  0xc2, 0x0d, 0x4d, 0x3f, 0x0e, 0x9f, 0x86, 0x3e, 0xe0, 0x81, 0x76, 0xbd, 
  0xdf, 0x91, 0xbd, 0x3f, 0x62, 0x8d, 0x89, 0x3e, 0x33, 0x53, 0xc5, 0xbf, 
  0xa4, 0x88, 0x27, 0x3f, 0x46, 0x5b, 0x47, 0x3f, 0xb5, 0x78, 0x36, 0x3f, 
  0x43, 0x89, 0x1b, 0x3f, 0xeb, 0x99, 0x29, 0xbf, 0x7d, 0x64, 0xa3, 0xbf, 
  0x52, 0xcd, 0x95, 0xbf, 0x32, 0xb6, 0x35, 0x3e, 0xb3, 0xc7, 0x20, 0x3f, 
  0xfe, 0xb2, 0x3b, 0x3f, 0xa5, 0xf5, 0xd3, 0xbf, 0xe7, 0xb9, 0x07, 0x3f, 
  0xcc, 0xc2, 0xb7, 0xbe, 0xba, 0xaf, 0x14, 0x3f, 0x71, 0x66, 0x90, 0x3f, 
  0x96, 0x7a, 0x7d, 0x3f, 0x26, 0x72, 0xd4, 0xbf, 0xc8, 0xf8, 0xff, 0xff, 
  0xcc, 0xf8, 0xff, 0xff, 0x0f, 0x00, 0x00, 0x00, 0x4d, 0x4c, 0x49, 0x52, 
  0x20, 0x43, 0x6f, 0x6e, 0x76, 0x65, 0x72, 0x74, 0x65, 0x64, 0x2e, 0x00, 
  0x01, 0x00, 0x00, 0x00, 0x14, 0x00, 0x00, 0x00, 0x00, 0x00, 0x0e, 0x00, 
  0x18, 0x00, 0x14, 0x00, 0x10, 0x00, 0x0c, 0x00, 0x08, 0x00, 0x04, 0x00, 
  0x0e, 0x00, 0x00, 0x00, 0x14, 0x00, 0x00, 0x00, 0x1c, 0x00, 0x00, 0x00, 
  0x5c, 0x01, 0x00, 0x00, 0x60, 0x01, 0x00, 0x00, 0x64, 0x01, 0x00, 0x00, 
  0x04, 0x00, 0x00, 0x00, 0x6d, 0x61, 0x69, 0x6e, 0x00, 0x00, 0x00, 0x00, 
  0x05, 0x00, 0x00, 0x00, 0x04, 0x01, 0x00, 0x00, 0xbc, 0x00, 0x00, 0x00, 
  0x84, 0x00, 0x00, 0x00, 0x50, 0x00, 0x00, 0x00, 0x14, 0x00, 0x00, 0x00, 
  0x00, 0x00, 0x0e, 0x00, 0x1a, 0x00, 0x14, 0x00, 0x10, 0x00, 0x0c, 0x00, 
  0x0b, 0x00, 0x04, 0x00, 0x0e, 0x00, 0x00, 0x00, 0x1c, 0x00, 0x00, 0x00, 
  0x00, 0x00, 0x00, 0x09, 0x1c, 0x00, 0x00, 0x00, 0x20, 0x00, 0x00, 0x00, 
  0x01, 0x00, 0x00, 0x00, 0x00, 0x00, 0x06, 0x00, 0x08, 0x00, 0x04, 0x00, 
  0x06, 0x00, 0x00, 0x00, 0x00, 0x00, 0x80, 0x3f, 0x01, 0x00, 0x00, 0x00, 
  0x0d, 0x00, 0x00, 0x00, 0x01, 0x00, 0x00, 0x00, 0x0c, 0x00, 0x00, 0x00, 
  0x66, 0xff, 0xff, 0xff, 0x10, 0x00, 0x00, 0x00, 0x00, 0x00, 0x00, 0x08, 
  0x0c, 0x00, 0x00, 0x00, 0x10, 0x00, 0x00, 0x00, 0x94, 0xf9, 0xff, 0xff, 
  0x01, 0x00, 0x00, 0x00, 0x0c, 0x00, 0x00, 0x00, 0x03, 0x00, 0x00, 0x00, 
  0x0b, 0x00, 0x00, 0x00, 0x01, 0x00, 0x00, 0x00, 0x06, 0x00, 0x00, 0x00, 
  0x96, 0xff, 0xff, 0xff, 0x10, 0x00, 0x00, 0x00, 0x00, 0x00, 0x00, 0x08, 
  0x10, 0x00, 0x00, 0x00, 0x14, 0x00, 0x00, 0x00, 0x86, 0xff, 0xff, 0xff, 
  0x00, 0x00, 0x00, 0x01, 0x01, 0x00, 0x00, 0x00, 0x0b, 0x00, 0x00, 0x00, 
  0x03, 0x00, 0x00, 0x00, 0x0a, 0x00, 0x00, 0x00, 0x02, 0x00, 0x00, 0x00, 
  0x05, 0x00, 0x00, 0x00, 0xca, 0xff, 0xff, 0xff, 0x10, 0x00, 0x00, 0x00, 
  0x00, 0x00, 0x00, 0x08, 0x10, 0x00, 0x00, 0x00, 0x14, 0x00, 0x00, 0x00, 
  0xba, 0xff, 0xff, 0xff, 0x00, 0x00, 0x00, 0x01, 0x01, 0x00, 0x00, 0x00, 
  0x0a, 0x00, 0x00, 0x00, 0x03, 0x00, 0x00, 0x00, 0x09, 0x00, 0x00, 0x00, 
  0x03, 0x00, 0x00, 0x00, 0x04, 0x00, 0x00, 0x00, 0x00, 0x00, 0x0e, 0x00, 
  0x16, 0x00, 0x00, 0x00, 0x10, 0x00, 0x0c, 0x00, 0x0b, 0x00, 0x04, 0x00, 
  0x0e, 0x00, 0x00, 0x00, 0x18, 0x00, 0x00, 0x00, 0x00, 0x00, 0x00, 0x08, 
  0x18, 0x00, 0x00, 0x00, 0x1c, 0x00, 0x00, 0x00, 0x00, 0x00, 0x06, 0x00, 
  0x08, 0x00, 0x07, 0x00, 0x06, 0x00, 0x00, 0x00, 0x00, 0x00, 0x00, 0x01, 
  0x01, 0x00, 0x00, 0x00, 0x09, 0x00, 0x00, 0x00, 0x03, 0x00, 0x00, 0x00, 
  0x00, 0x00, 0x00, 0x00, 0x08, 0x00, 0x00, 0x00, 0x07, 0x00, 0x00, 0x00, 
  0x01, 0x00, 0x00, 0x00, 0x0d, 0x00, 0x00, 0x00, 0x01, 0x00, 0x00, 0x00, 
  0x00, 0x00, 0x00, 0x00, 0x0e, 0x00, 0x00, 0x00, 0x60, 0x05, 0x00, 0x00, 
  0x08, 0x05, 0x00, 0x00, 0xb0, 0x04, 0x00, 0x00, 0x70, 0x04, 0x00, 0x00, 
  0x34, 0x04, 0x00, 0x00, 0xd4, 0x03, 0x00, 0x00, 0x74, 0x03, 0x00, 0x00, 
  0x18, 0x03, 0x00, 0x00, 0xc8, 0x02, 0x00, 0x00, 0x28, 0x02, 0x00, 0x00, 
  0x88, 0x01, 0x00, 0x00, 0xe4, 0x00, 0x00, 0x00, 0x60, 0x00, 0x00, 0x00, 
  0x04, 0x00, 0x00, 0x00, 0xee, 0xfa, 0xff, 0xff, 0x00, 0x00, 0x00, 0x01, 
  0x14, 0x00, 0x00, 0x00, 0x1c, 0x00, 0x00, 0x00, 0x1c, 0x00, 0x00, 0x00, 
  0x0e, 0x00, 0x00, 0x00, 0x34, 0x00, 0x00, 0x00, 0x02, 0x00, 0x00, 0x00, 
  0xff, 0xff, 0xff, 0xff, 0x03, 0x00, 0x00, 0x00, 0xd8, 0xfa, 0xff, 0xff, 
  0x1b, 0x00, 0x00, 0x00, 0x53, 0x74, 0x61, 0x74, 0x65, 0x66, 0x75, 0x6c, 
  0x50, 0x61, 0x72, 0x74, 0x69, 0x74, 0x69, 0x6f, 0x6e, 0x65, 0x64, 0x43, 
  0x61, 0x6c, 0x6c, 0x5f, 0x31, 0x3a, 0x30, 0x00, 0x02, 0x00, 0x00, 0x00, 
  0x01, 0x00, 0x00, 0x00, 0x03, 0x00, 0x00, 0x00, 0x46, 0xfb, 0xff, 0xff, 
  0x00, 0x00, 0x00, 0x01, 0x14, 0x00, 0x00, 0x00, 0x1c, 0x00, 0x00, 0x00, 
  0x1c, 0x00, 0x00, 0x00, 0x0d, 0x00, 0x00, 0x00, 0x5c, 0x00, 0x00, 0x00, 
  0x02, 0x00, 0x00, 0x00, 0xff, 0xff, 0xff, 0xff, 0x03, 0x00, 0x00, 0x00, 
  0x30, 0xfb, 0xff, 0xff, 0x42, 0x00, 0x00, 0x00, 0x73, 0x65, 0x71, 0x75, 
  0x65, 0x6e, 0x74, 0x69, 0x61, 0x6c, 0x5f, 0x32, 0x5f, 0x31, 0x2f, 0x64, 
  0x65, 0x6e, 0x73, 0x65, 0x5f, 0x31, 0x31, 0x5f, 0x31, 0x2f, 0x4d, 0x61, 
  0x74, 0x4d, 0x75, 0x6c, 0x3b, 0x73, 0x65, 0x71, 0x75, 0x65, 0x6e, 0x74, 
  0x69, 0x61, 0x6c, 0x5f, 0x32, 0x5f, 0x31, 0x2f, 0x64, 0x65, 0x6e, 0x73, 
  0x65, 0x5f, 0x31, 0x31, 0x5f, 0x31, 0x2f, 0x42, 0x69, 0x61, 0x73, 0x41, 
  0x64, 0x64, 0x00, 0x00, 0x02, 0x00, 0x00, 0x00, 0x01, 0x00, 0x00, 0x00, 
  0x03, 0x00, 0x00, 0x00, 0xc6, 0xfb, 0xff, 0xff, 0x00, 0x00, 0x00, 0x01, 
  0x14, 0x00, 0x00, 0x00, 0x1c, 0x00, 0x00, 0x00, 0x1c, 0x00, 0x00, 0x00, 
  0x0c, 0x00, 0x00, 0x00, 0x7c, 0x00, 0x00, 0x00, 0x02, 0x00, 0x00, 0x00, 
  0xff, 0xff, 0xff, 0xff, 0x08, 0x00, 0x00, 0x00, 0xb0, 0xfb, 0xff, 0xff, 
  0x61, 0x00, 0x00, 0x00, 0x73, 0x65, 0x71, 0x75, 0x65, 0x6e, 0x74, 0x69, 
  0x61, 0x6c, 0x5f, 0x32, 0x5f, 0x31, 0x2f, 0x64, 0x65, 0x6e, 0x73, 0x65, 
  0x5f, 0x31, 0x30, 0x5f, 0x31, 0x2f, 0x4d, 0x61, 0x74, 0x4d, 0x75, 0x6c, 
  0x3b, 0x73, 0x65, 0x71, 0x75, 0x65, 0x6e, 0x74, 0x69, 0x61, 0x6c, 0x5f, 
  0x32, 0x5f, 0x31, 0x2f, 0x64, 0x65, 0x6e, 0x73, 0x65, 0x5f, 0x31, 0x30, 
  0x5f, 0x31, 0x2f, 0x52, 0x65, 0x6c, 0x75, 0x3b, 0x73, 0x65, 0x71, 0x75, 
  0x65, 0x6e, 0x74, 0x69, 0x61, 0x6c, 0x5f, 0x32, 0x5f, 0x31, 0x2f, 0x64, 
  0x65, 0x6e, 0x73, 0x65, 0x5f, 0x31, 0x30, 0x5f, 0x31, 0x2f, 0x42, 0x69, 
  0x61, 0x73, 0x41, 0x64, 0x64, 0x00, 0x00, 0x00, 0x02, 0x00, 0x00, 0x00, 
  0x01, 0x00, 0x00, 0x00, 0x08, 0x00, 0x00, 0x00, 0x66, 0xfc, 0xff, 0xff, 
  0x00, 0x00, 0x00, 0x01, 0x14, 0x00, 0x00, 0x00, 0x1c, 0x00, 0x00, 0x00, 
  0x1c, 0x00, 0x00, 0x00, 0x0b, 0x00, 0x00, 0x00, 0x78, 0x00, 0x00, 0x00, 
  0x02, 0x00, 0x00, 0x00, 0xff, 0xff, 0xff, 0xff, 0x10, 0x00, 0x00, 0x00, 
  0x50, 0xfc, 0xff, 0xff, 0x5e, 0x00, 0x00, 0x00, 0x73, 0x65, 0x71, 0x75, 
  0x65, 0x6e, 0x74, 0x69, 0x61, 0x6c, 0x5f, 0x32, 0x5f, 0x31, 0x2f, 0x64, 
  0x65, 0x6e, 0x73, 0x65, 0x5f, 0x39, 0x5f, 0x31, 0x2f, 0x4d, 0x61, 0x74, 
  0x4d, 0x75, 0x6c, 0x3b, 0x73, 0x65, 0x71, 0x75, 0x65, 0x6e, 0x74, 0x69, 
  0x61, 0x6c, 0x5f, 0x32, 0x5f, 0x31, 0x2f, 0x64, 0x65, 0x6e, 0x73, 0x65, 
  0x5f, 0x39, 0x5f, 0x31, 0x2f, 0x52, 0x65, 0x6c, 0x75, 0x3b, 0x73, 0x65, 
  0x71, 0x75, 0x65, 0x6e, 0x74, 0x69, 0x61, 0x6c, 0x5f, 0x32, 0x5f, 0x31, 
  0x2f, 0x64, 0x65, 0x6e, 0x73, 0x65, 0x5f, 0x39, 0x5f, 0x31, 0x2f, 0x42, 
  0x69, 0x61, 0x73, 0x41, 0x64, 0x64, 0x00, 0x00, 0x02, 0x00, 0x00, 0x00, 
  0x01, 0x00, 0x00, 0x00, 0x10, 0x00, 0x00, 0x00, 0x02, 0xfd, 0xff, 0xff, 
  0x00, 0x00, 0x00, 0x01, 0x14, 0x00, 0x00, 0x00, 0x1c, 0x00, 0x00, 0x00, 
  0x1c, 0x00, 0x00, 0x00, 0x0a, 0x00, 0x00, 0x00, 0x78, 0x00, 0x00, 0x00, 
  0x02, 0x00, 0x00, 0x00, 0xff, 0xff, 0xff, 0xff, 0x20, 0x00, 0x00, 0x00, 
  0xec, 0xfc, 0xff, 0xff, 0x5e, 0x00, 0x00, 0x00, 0x73, 0x65, 0x71, 0x75, 
  0x65, 0x6e, 0x74, 0x69, 0x61, 0x6c, 0x5f, 0x32, 0x5f, 0x31, 0x2f, 0x64, 
  0x65, 0x6e, 0x73, 0x65, 0x5f, 0x38, 0x5f, 0x31, 0x2f, 0x4d, 0x61, 0x74, 
  0x4d, 0x75, 0x6c, 0x3b, 0x73, 0x65, 0x71, 0x75, 0x65, 0x6e, 0x74, 0x69, 
  0x61, 0x6c, 0x5f, 0x32, 0x5f, 0x31, 0x2f, 0x64, 0x65, 0x6e, 0x73, 0x65, 
  0x5f, 0x38, 0x5f, 0x31, 0x2f, 0x52, 0x65, 0x6c, 0x75, 0x3b, 0x73, 0x65, 
  0x71, 0x75, 0x65, 0x6e, 0x74, 0x69, 0x61, 0x6c, 0x5f, 0x32, 0x5f, 0x31, 
  0x2f, 0x64, 0x65, 0x6e, 0x73, 0x65, 0x5f, 0x38, 0x5f, 0x31, 0x2f, 0x42, 
  0x69, 0x61, 0x73, 0x41, 0x64, 0x64, 0x00, 0x00, 0x02, 0x00, 0x00, 0x00, 
  0x01, 0x00, 0x00, 0x00, 0x20, 0x00, 0x00, 0x00, 0xf2, 0xfd, 0xff, 0xff, 
  0x00, 0x00, 0x00, 0x01, 0x10, 0x00, 0x00, 0x00, 0x10, 0x00, 0x00, 0x00, 
  0x09, 0x00, 0x00, 0x00, 0x2c, 0x00, 0x00, 0x00, 0x78, 0xfd, 0xff, 0xff, 
  0x1f, 0x00, 0x00, 0x00, 0x73, 0x65, 0x71, 0x75, 0x65, 0x6e, 0x74, 0x69, 
  0x61, 0x6c, 0x5f, 0x32, 0x5f, 0x31, 0x2f, 0x64, 0x65, 0x6e, 0x73, 0x65, 
  0x5f, 0x38, 0x5f, 0x31, 0x2f, 0x4d, 0x61, 0x74, 0x4d, 0x75, 0x6c, 0x00, 
  0x02, 0x00, 0x00, 0x00, 0x20, 0x00, 0x00, 0x00, 0x02, 0x00, 0x00, 0x00, 
  0x3e, 0xfe, 0xff, 0xff, 0x00, 0x00, 0x00, 0x01, 0x10, 0x00, 0x00, 0x00, 
  0x10, 0x00, 0x00, 0x00, 0x08, 0x00, 0x00, 0x00, 0x3c, 0x00, 0x00, 0x00, 
  0xc4, 0xfd, 0xff, 0xff, 0x2f, 0x00, 0x00, 0x00, 0x73, 0x65, 0x71, 0x75, 
  0x65, 0x6e, 0x74, 0x69, 0x61, 0x6c, 0x5f, 0x32, 0x5f, 0x31, 0x2f, 0x64, 
  0x65, 0x6e, 0x73, 0x65, 0x5f, 0x38, 0x5f, 0x31, 0x2f, 0x42, 0x69, 0x61, 
  0x73, 0x41, 0x64, 0x64, 0x2f, 0x52, 0x65, 0x61, 0x64, 0x56, 0x61, 0x72, 
  0x69, 0x61, 0x62, 0x6c, 0x65, 0x4f, 0x70, 0x00, 0x01, 0x00, 0x00, 0x00, 
  0x20, 0x00, 0x00, 0x00, 0x96, 0xfe, 0xff, 0xff, 0x00, 0x00, 0x00, 0x01, 
  0x10, 0x00, 0x00, 0x00, 0x10, 0x00, 0x00, 0x00, 0x07, 0x00, 0x00, 0x00, 
  0x40, 0x00, 0x00, 0x00, 0x1c, 0xfe, 0xff, 0xff, 0x30, 0x00, 0x00, 0x00, 
  0x73, 0x65, 0x71, 0x75, 0x65, 0x6e, 0x74, 0x69, 0x61, 0x6c, 0x5f, 0x32, 
  0x5f, 0x31, 0x2f, 0x64, 0x65, 0x6e, 0x73, 0x65, 0x5f, 0x31, 0x31, 0x5f, 
  0x31, 0x2f, 0x42, 0x69, 0x61, 0x73, 0x41, 0x64, 0x64, 0x2f, 0x52, 0x65, 
  0x61, 0x64, 0x56, 0x61, 0x72, 0x69, 0x61, 0x62, 0x6c, 0x65, 0x4f, 0x70, 
  0x00, 0x00, 0x00, 0x00, 0x01, 0x00, 0x00, 0x00, 0x03, 0x00, 0x00, 0x00, 
  0xf2, 0xfe, 0xff, 0xff, 0x00, 0x00, 0x00, 0x01, 0x10, 0x00, 0x00, 0x00, 
  0x10, 0x00, 0x00, 0x00, 0x06, 0x00, 0x00, 0x00, 0x40, 0x00, 0x00, 0x00, 
  0x78, 0xfe, 0xff, 0xff, 0x30, 0x00, 0x00, 0x00, 0x73, 0x65, 0x71, 0x75, 
  0x65, 0x6e, 0x74, 0x69, 0x61, 0x6c, 0x5f, 0x32, 0x5f, 0x31, 0x2f, 0x64, 
  0x65, 0x6e, 0x73, 0x65, 0x5f, 0x31, 0x30, 0x5f, 0x31, 0x2f, 0x42, 0x69, 
  0x61, 0x73, 0x41, 0x64, 0x64, 0x2f, 0x52, 0x65, 0x61, 0x64, 0x56, 0x61, 
  0x72, 0x69, 0x61, 0x62, 0x6c, 0x65, 0x4f, 0x70, 0x00, 0x00, 0x00, 0x00, 
  0x01, 0x00, 0x00, 0x00, 0x08, 0x00, 0x00, 0x00, 0x4e, 0xff, 0xff, 0xff, 
  0x00, 0x00, 0x00, 0x01, 0x10, 0x00, 0x00, 0x00, 0x10, 0x00, 0x00, 0x00, 
  0x05, 0x00, 0x00, 0x00, 0x1c, 0x00, 0x00, 0x00, 0xd4, 0xfe, 0xff, 0xff, 
  0x0f, 0x00, 0x00, 0x00, 0x61, 0x72, 0x69, 0x74, 0x68, 0x2e, 0x63, 0x6f, 
  0x6e, 0x73, 0x74, 0x61, 0x6e, 0x74, 0x33, 0x00, 0x01, 0x00, 0x00, 0x00, 
  0x10, 0x00, 0x00, 0x00, 0x86, 0xff, 0xff, 0xff, 0x00, 0x00, 0x00, 0x01, 
  0x10, 0x00, 0x00, 0x00, 0x10, 0x00, 0x00, 0x00, 0x04, 0x00, 0x00, 0x00, 
  0x1c, 0x00, 0x00, 0x00, 0x0c, 0xff, 0xff, 0xff, 0x0f, 0x00, 0x00, 0x00, 
  0x61, 0x72, 0x69, 0x74, 0x68, 0x2e, 0x63, 0x6f, 0x6e, 0x73, 0x74, 0x61, 
  0x6e, 0x74, 0x32, 0x00, 0x02, 0x00, 0x00, 0x00, 0x10, 0x00, 0x00, 0x00, 
  0x20, 0x00, 0x00, 0x00, 0xc2, 0xff, 0xff, 0xff, 0x00, 0x00, 0x00, 0x01, 
  0x10, 0x00, 0x00, 0x00, 0x10, 0x00, 0x00, 0x00, 0x03, 0x00, 0x00, 0x00, 
  0x1c, 0x00, 0x00, 0x00, 0x48, 0xff, 0xff, 0xff, 0x0f, 0x00, 0x00, 0x00, 
  0x61, 0x72, 0x69, 0x74, 0x68, 0x2e, 0x63, 0x6f, 0x6e, 0x73, 0x74, 0x61, 
  0x6e, 0x74, 0x31, 0x00, 0x02, 0x00, 0x00, 0x00, 0x08, 0x00, 0x00, 0x00, 
  0x10, 0x00, 0x00, 0x00, 0x00, 0x00, 0x16, 0x00, 0x18, 0x00, 0x14, 0x00, 
  0x00, 0x00, 0x10, 0x00, 0x0c, 0x00, 0x08, 0x00, 0x00, 0x00, 0x00, 0x00, 
  0x00, 0x00, 0x07, 0x00, 0x16, 0x00, 0x00, 0x00, 0x00, 0x00, 0x00, 0x01, 
  0x10, 0x00, 0x00, 0x00, 0x10, 0x00, 0x00, 0x00, 0x02, 0x00, 0x00, 0x00, 
  0x1c, 0x00, 0x00, 0x00, 0x9c, 0xff, 0xff, 0xff, 0x0e, 0x00, 0x00, 0x00, 
  0x61, 0x72, 0x69, 0x74, 0x68, 0x2e, 0x63, 0x6f, 0x6e, 0x73, 0x74, 0x61, 
  0x6e, 0x74, 0x00, 0x00, 0x02, 0x00, 0x00, 0x00, 0x03, 0x00, 0x00, 0x00, 
  0x08, 0x00, 0x00, 0x00, 0x00, 0x00, 0x16, 0x00, 0x1c, 0x00, 0x18, 0x00, 
  0x00, 0x00, 0x14, 0x00, 0x10, 0x00, 0x0c, 0x00, 0x00, 0x00, 0x00, 0x00, 
  0x08, 0x00, 0x07, 0x00, 0x16, 0x00, 0x00, 0x00, 0x00, 0x00, 0x00, 0x01, 
  0x14, 0x00, 0x00, 0x00, 0x20, 0x00, 0x00, 0x00, 0x20, 0x00, 0x00, 0x00, 
  0x01, 0x00, 0x00, 0x00, 0x40, 0x00, 0x00, 0x00, 0x02, 0x00, 0x00, 0x00, 
  0xff, 0xff, 0xff, 0xff, 0x02, 0x00, 0x00, 0x00, 0x04, 0x00, 0x04, 0x00, 
  0x04, 0x00, 0x00, 0x00, 0x21, 0x00, 0x00, 0x00, 0x73, 0x65, 0x72, 0x76, 
  0x69, 0x6e, 0x67, 0x5f, 0x64, 0x65, 0x66, 0x61, 0x75, 0x6c, 0x74, 0x5f, 
  0x6b, 0x65, 0x72, 0x61, 0x73, 0x5f, 0x74, 0x65, 0x6e, 0x73, 0x6f, 0x72, 
  0x5f, 0x31, 0x30, 0x3a, 0x30, 0x00, 0x00, 0x00, 0x02, 0x00, 0x00, 0x00, 
  0x01, 0x00, 0x00, 0x00, 0x02, 0x00, 0x00, 0x00, 0x02, 0x00, 0x00, 0x00, 
  0x20, 0x00, 0x00, 0x00, 0x04, 0x00, 0x00, 0x00, 0xf4, 0xff, 0xff, 0xff, 
  0x19, 0x00, 0x00, 0x00, 0x00, 0x00, 0x00, 0x19, 0x0c, 0x00, 0x0c, 0x00, 
  0x0b, 0x00, 0x00, 0x00, 0x00, 0x00, 0x04, 0x00, 0x0c, 0x00, 0x00, 0x00, 
  0x09, 0x00, 0x00, 0x00, 0x00, 0x00, 0x00, 0x09, 
};

const unsigned int dht_anomaly_model2_tflite_len = 5708;

#endif
